/**
  ******************************************************************************
  * @file    network_data_params.c
  * @author  AST Embedded Analytics Research Platform
  * @date    Fri Feb 23 16:25:05 2024
  * @brief   AI Tool Automatic Code Generator for Embedded NN computing
  ******************************************************************************
  * Copyright (c) 2024 STMicroelectronics.
  * All rights reserved.
  *
  * This software is licensed under terms that can be found in the LICENSE file
  * in the root directory of this software component.
  * If no LICENSE file comes with this software, it is provided AS-IS.
  ******************************************************************************
  */

#include "network_data_params.h"


/**  Activations Section  ****************************************************/
ai_handle g_network_activations_table[1 + 2] = {
  AI_HANDLE_PTR(AI_MAGIC_MARKER),
  AI_HANDLE_PTR(NULL),
  AI_HANDLE_PTR(AI_MAGIC_MARKER),
};




/**  Weights Section  ********************************************************/
AI_ALIGNED(32)
const ai_u64 s_network_weights_array_u64[62661] = {
  0x3c28f9123edac72aU, 0x3ba256903df9e725U, 0xbf269db7bec3829dU, 0xbe8c07133d99a6aaU,
  0x3e8a4df83d31d8c2U, 0xbf0cf21fbe866c12U, 0x3e84bc6eb90d2b72U, 0x3eac9d55beb2adfdU,
  0x3e55384a3eb6193fU, 0x3e97cc403e3bd1d5U, 0xbedea4ff3e8b0601U, 0xbd2bd1cdbe7cf3dfU,
  0xbba9a399be8416feU, 0xbe7d630e3cb86896U, 0x3ed04fb1be36d4c0U, 0xbf31b753bd3d87f3U,
  0x3ef569c1bee39d9aU, 0xbe8dbefe3de49045U, 0xbe737da6be415c61U, 0xbe6480063d01ce36U,
  0x3e8f159b3e44b205U, 0x3e6e022bbcaec493U, 0xbe81cd8cbe505cf2U, 0xbd761c0b3e49a73dU,
  0x3e4599a33e3fcc21U, 0xbec4ea053e86265dU, 0xb93fe2afbe489523U, 0xbd8114f83e91b1f4U,
  0xbe0220f6bec266f8U, 0xbd3589a33ed2a486U, 0x3e1bd5a1bef8fe70U, 0x3de748533d8388f0U,
  0x3f1e9af63b23cfe4U, 0xbe5aed3b3e7f1c29U, 0xbf32aac53ddf6c28U, 0x3e3f9f75bf1a3874U,
  0xbf2f15acbef406a2U, 0xbc7cdbfa3c4bde84U, 0x3e9cc030be05b0f8U, 0x3f03f2e13e215c14U,
  0xbee1ffb93e3a9efcU, 0xbcf61d75beab56bbU, 0x3ead68f33ea9a3abU, 0x3e2ceb6c3ed361abU,
  0xbee67a33beb0c429U, 0x3dfe1b1f3e4544e8U, 0x3e8fd300beaf9303U, 0xbe829fc6be74b517U,
  0x3e8ca0ee3e46e22cU, 0x3ead902dbe823de7U, 0xbeda291fbe89214eU, 0xbe89c908bed89e84U,
  0xbd5bc0bdbe38c290U, 0x3e83d7333e83915eU, 0xbe104bdf3d8d3473U, 0xbde445123d10df08U,
  0xbeceabebbe47d4d5U, 0xbdaca4443e941720U, 0x3eb0afee3e6aa094U, 0x3d7137543eb909b9U,
  0xbd1d3117be0c5cc5U, 0xbed3f0bb3e0f65c8U, 0xbe3ad41ebe8fb4a7U, 0xbe8c705bbe4f45c3U,
  0x3e7260313e8349e5U, 0x3ec5a1fa3dc0019eU, 0x3e6b05de3d9b719dU, 0x3edcbdc0bf07109cU,
  0xbe37e38a3ed0048dU, 0xbe8f66c2bd9a75d3U, 0xbd5c3496be58b26aU, 0xbe9391efbf01c986U,
  0xbda3ab3f3c644632U, 0x3e0402ecbd882b97U, 0xbdb1a6bbbd9fa9c6U, 0xbd8960ebbdaaff37U,
  0x39ef0a263d9047f5U, 0x3d08ad8d3d734378U, 0xbda8d763bbf3f3c7U, 0x3da3ebbcbe81b571U,
  0xbe091e96be16ba0aU, 0xbd85123b3dec2f8aU, 0x3e5713943dc5e721U, 0x3e24af383d9c5315U,
  0x3bc2788abe88d1efU, 0xbf08537b3bca7c52U, 0x3e7dcc1bbea035a0U, 0x3d73b45b3e3cbc1fU,
  0xbda7ff51bd76f3fdU, 0xbe2e80f23d899008U, 0x3e211d43bd55d604U, 0x3dc7032e3d378da4U,
  0x3d703b97be9d4c06U, 0xbe2648563d8bdbe1U, 0x3e8148a0be725fe4U, 0x3d6521f23e7acd5cU,
  0xbf07c8c53e216882U, 0xbe11b275bd3e8b3fU, 0x3e04d1ef3c1f8f62U, 0x3e88cdabbe484435U,
  0x3dc9a38abebd67ecU, 0xbe042795be39c147U, 0x3e3df9d0be52d08dU, 0x3e7a43f63e22499dU,
  0x3b16c3f13e7d49c9U, 0x3e90b90a3e0847d3U, 0xbe2b3b8abea5e160U, 0xbd938393be184378U,
  0xbdc7c5b2be42761dU, 0xbe3e15debe37a8e0U, 0x3e43560f3de14295U, 0x3e19f7e6be446c6cU,
  0xbe4b0f083e3e3951U, 0x3de8c9f03ded85e4U, 0xbea78358be983eb1U, 0xbe5b8314bb4c8e18U,
  0xbe962db03d90d028U, 0x3e2e4d51bec67039U, 0x3dac8f7d3dbd91d2U, 0x3e1dd166be8f2ad5U,
  0x3c55fb0abd6921adU, 0xbc4cf5513e105690U, 0xbeb873783c86a608U, 0xbe1565c13b93aac5U,
  0xbded14e33d2022ffU, 0x3e02a88abe566791U, 0x3d2fad813df68fe0U, 0x3d4e2bbcbd044b1cU,
  0x3da20c8bbea144c3U, 0xbe87eb38bf0e9314U, 0x3ce122883d0c74aeU, 0xbecada7fbde0953fU,
  0x3ddaa1fb3e70617fU, 0x3e65a9e3bc8cef8bU, 0xbef289703df6bc18U, 0xbed11d373e086644U,
  0x3e4cd443bebc73deU, 0xbe2070e4be4acc9dU, 0x3e0f13b93e384961U, 0xbc944d14be4ba270U,
  0x3ea7b8a73e588530U, 0x3e05b903bd0ba3d3U, 0xbe9ea53bbd7115b1U, 0xbecaecfb3e57a007U,
  0x3e068d6fbe8609fdU, 0xbc556594bc95af14U, 0x3ddb0f663b801c6bU, 0xbdb1ee9d3dc920e1U,
  0x3d9184053e407667U, 0xbd98ae8b3d7430d8U, 0x3e111a07be112df0U, 0xbe27451f399aa03bU,
  0x3e8743a5be2054f8U, 0xbdf54b063d5ee4abU, 0x3c42354bbe37e450U, 0x3da4f8fb3d1b18a7U,
  0x3da69455bdbb31d9U, 0x3e2f2e85bcc44a43U, 0x3d541a0c3eb6fd45U, 0xbe3205a73e0b6474U,
  0x3cec52a5be81cf78U, 0x3df140e13dcbbd2bU, 0x3e2072993de63ed9U, 0x3e0e4393bc5d404dU,
  0x3e5713083e2359e0U, 0xbdac04c5be2f889bU, 0x3dc7cf933e2ff46eU, 0xbe6219c73e3f4976U,
  0x3c5569b4be98d8faU, 0xbe33c545bda0b2ddU, 0x3c53a4e9bd851aadU, 0xbea040253e24357cU,
  0xbd8031aebe0f66c0U, 0xbe791172bc284ed6U, 0xbdccfeb2be24b410U, 0xbe92b6243bf603fdU,
  0xbe0eb5dc3dc88bc5U, 0x3e3a76003e0a5ef1U, 0xbc42ec2cbdb538d3U, 0x3daf70423d275959U,
  0x3d8f6733bd6dcb27U, 0x3d0da6d7bd8caa46U, 0x3d64555f3e47119aU, 0xbd8a1b8cbd54a371U,
  0xbdf72a1dbe9f0b51U, 0xbe581886bd9b2f73U, 0xbe01d1f73cd95a08U, 0xbe9406e1bd50a288U,
  0x3e63a1173e08e9aaU, 0x3cf15468bcca9f28U, 0xbe735479bde59052U, 0xbe5537cf3e032fadU,
  0xbd884e6e3d1ed155U, 0xbe91a89ebe97cf73U, 0xbca159aebe677fd2U, 0xbe09e4edbd9b8c56U,
  0x3d7447d2bed144a7U, 0xbe2d3cb93d1e6c4dU, 0xbd1333a1bd776bdfU, 0xbce7f0963ce47abcU,
  0xbdb056c8be2847caU, 0xbed57881be65602cU, 0xbd225d593e7f2c9aU, 0xbe4325e6bdfea02fU,
  0x3e8148273e680a52U, 0xbd0282cfbe88cce6U, 0xbdf01074be12969fU, 0xbe29264f3eacf3c5U,
  0xbd5f11733dca8084U, 0xbeeeda75be3eca16U, 0x3d8aea8abbc31079U, 0xbd71c1e4bd97a77cU,
  0x3dc0616ebe69b436U, 0xbd26d4503e3bab65U, 0x3e076082be3e95a6U, 0x3e2c65943e05da31U,
  0xbd9b97063e9bf4a0U, 0xbab3c4cabc00144fU, 0xbdf4fb2ebee8bf85U, 0xbd3efb5c3e859459U,
  0xbe55c797bf14100bU, 0x3e4135f93d41a0b6U, 0x3e816f053e58ce0cU, 0x3e948983be9bc934U,
  0x3d9910a33dcd7357U, 0x3dbbc453bd394e85U, 0xbd6ad0fb3d72e188U, 0xbe28892c3e285ebdU,
  0x3e0e819bbc7f7c89U, 0x3d74c970be2266afU, 0x3c5c838f3e863d8dU, 0xbd4298593db7334dU,
  0xbe5d33e33bc0d973U, 0x3cfb85743e470d00U, 0xbc44bee3bd4aa4dbU, 0x3e0455843ce04196U,
  0x3dc12b26bccb2dd9U, 0x3caa147bbe8b0beaU, 0x3e0b75213e00daa7U, 0x3d7e079c3d53b227U,
  0xbcc1367bbf16916aU, 0xbeca4aa73dfe3036U, 0x3e0156703e644585U, 0x3daa98353c152036U,
  0xbe27fb993d9cd042U, 0xbe0eb3c7be356e66U, 0xbd534a9ebe69f20bU, 0xbf16492e3de32309U,
  0xbe5b01903dc444f6U, 0x3d46fb613e1013e3U, 0xbd285105be6fb0e4U, 0x3bba86043dc2d61bU,
  0xbe121bfbbe88dba0U, 0xbde8fc8dbe0bfde1U, 0x3e622f1fbd8be414U, 0x3da9a743bea0bb4bU,
  0xbeff4aa2bc4eed29U, 0xbd64d2dc3dfae6a5U, 0xbd30c401bcf8f61dU, 0x3e1200b7bdef6320U,
  0xbdbee4173e294657U, 0xbbcf4160be9d7b0aU, 0x3d5c3e4b3db51dedU, 0x3cd08b0abe42ef54U,
  0xbd425e4dbe83990cU, 0xbee0f596bda2d0d7U, 0x3e5cf9b13e9ca728U, 0xbddde80bbc8fb222U,
  0x3e123a553d97be81U, 0xbe0abd023df6cdf5U, 0xbe982580be7e3792U, 0xbeae5e403e2e0d3cU,
  0xbea954323bd0cb7fU, 0x3d8301d83e252b49U, 0xbe434ed5be0b65c2U, 0xbe758a063e21c730U,
  0x3e8001063c581c17U, 0x3d23206abf035b0fU, 0x3dea7e2d3d432286U, 0xbc196cafbe0361f6U,
  0xbec3afd5bed1dfd3U, 0xbea6bd5b3e077729U, 0x3e0f801b3e40af73U, 0x3dec4042bd80ab24U,
  0x3d0929693e8e0891U, 0x3db76280bf1f911fU, 0xbdce63f3bc55e008U, 0xbe79b4343e3264e5U,
  0x3e7c679c3c00e3dbU, 0xbf2b0423bd019e88U, 0x3e07f5bf3d0b7c57U, 0xbd91533a3da81299U,
  0x3d6dc3efbe896e7aU, 0xbe8644c63e2ed6e1U, 0x3d559e68bdee97a7U, 0x3d57bf913e4b91a6U,
  0x3ce245f03c080ed4U, 0xbe6662153dda10f8U, 0x3c5f955a3de6167dU, 0xbe01ff16be39912fU,
  0xbc9c36b53b855c0dU, 0xbe38145f3dbba4eeU, 0x3e058c5ebe0af436U, 0xbd89cd193e37ce4cU,
  0x3da7433d3d8b60abU, 0x3d8cd638bcf479a4U, 0x3d800298be16183dU, 0xbdb55da23da196a4U,
  0x3dff2ad9bd94250fU, 0x3e09ecb23e41e73fU, 0x3bf0afabbc504cf6U, 0xbe332fe4bc6c92b1U,
  0x3e21dc28be667db9U, 0x3c298244bda0ad9cU, 0x3d419a503e35c646U, 0xbe3b89e33e3686dbU,
  0x3ea1f6fcbd2833f2U, 0x3ea6fb49bdd785adU, 0xbdae8aec3d932e40U, 0xbeacdec73e4bfdbdU,
  0xbd755c0d3d68f1ceU, 0x3dfd49863e01dfdfU, 0xbc16fb09bda6093eU, 0x3d494bd53e78834dU,
  0xbd3b4061beb9637aU, 0xbd8557f9ba0d1902U, 0x3e7d29393dbe0fb5U, 0x3d26a867bd80dd66U,
  0xbe0e79ddbe1b4b25U, 0x3dc28eb23e125f07U, 0xbd4021dfbdf5d75bU, 0x3db31e273db58e22U,
  0xbd161a24be890e90U, 0xbda54310be6d056eU, 0x3e11dc5fbe0be748U, 0xbd810d6abd2518ddU,
  0xbe355ea4bd38de9dU, 0x3d8b4cab3e2d4648U, 0x3da28da6bde93ed5U, 0x3e73bb5abd2dcccbU,
  0x3cb67bd1bf18465bU, 0xbe1b7787be1dece6U, 0x3e0c1293be06a2e0U, 0xbd65fac4bdd13c1eU,
  0xbe396c453d476449U, 0x3c5f4842bc876ca1U, 0xbe359a773c9a7902U, 0xbe475fee3d9c4f1bU,
  0x3d3a23b53d07fa47U, 0xbd9d6497be3353eeU, 0xbdbe9126bb31e9c7U, 0xbe0ce13f3bee7c90U,
  0xbe119606be051c2dU, 0xbd3b59c7be0b942eU, 0xbe786f0bbcbfc9dcU, 0xbeb0d4cdbbbba6b2U,
  0x3d3e2ca43e4d7821U, 0x3e4c5a45be8a0190U, 0xbe52cf943c704424U, 0xbd1c64b4be0dd315U,
  0xbde0e7843d909e2cU, 0xbdde7d05bcd0511cU, 0x3dad588e3e90798dU, 0xbe0dc1aabe7de052U,
  0xbb44e1913e60c951U, 0x3dd601b3be509dbeU, 0xbe87e3943d132902U, 0xbdc534343e265c36U,
  0x3e6655d23d9745c2U, 0xbe23670dbe87abc9U, 0x3e67adfd3e00ff71U, 0x3ca6fd903d05f4e2U,
  0xbdaca8eabe9a367cU, 0xbe9b00ef3e8e8ab5U, 0x3d18b4bcbe16d97bU, 0x3d4724ba3e953ac0U,
  0xbe94ab123e758d40U, 0xbe818597bd461d7cU, 0xbe2f1394be4b3c02U, 0xbcbb65883dfe5b46U,
  0xbecad5e7be9a1ae2U, 0xbdb7b7d53db43594U, 0x3c0a3d26be29098aU, 0x3e5e53c2bd1de2aeU,
  0xbebe6e0ebe601cd3U, 0xbe2e78b03d8060c7U, 0x3cc527a33e00b896U, 0x3c7cdb98be216e3aU,
  0xbe568a5b3d94f105U, 0x3c082963bec8e44dU, 0xbcc1a5a13d80c923U, 0xbe2aa11cbe0d46eeU,
  0xbe8237fd3ee528bcU, 0xbea79c083dcfd264U, 0xbdb492f5bece7e11U, 0x3e313d433e380254U,
  0xbe8f77f3be86e54bU, 0x3d7670ce3e237cceU, 0x3e855504beae87beU, 0x3e9733dabe06d419U,
  0xbeb31cd73e8ed4a6U, 0xbe858ffebbf89a23U, 0xbe353a883d334a24U, 0xbdcc57153cb4da5dU,
  0x3d7ba2553df09222U, 0x3d6efea3be77d308U, 0xbc1841d13bd01376U, 0x3e22661ebe134719U,
  0xbd3521c9beb94728U, 0xbeb7fef0be443cfcU, 0x3ce9a1b23e494d91U, 0xbe054038beaf8d28U,
  0x3e56eda63df16646U, 0x3d8d15b0bea9a73aU, 0xbecfe24fbdf4b867U, 0xbeb0077c3ea6fd50U,
  0xbe456cb53e7446bbU, 0x3cb969b5bdd377f1U, 0xbecc4385bd18963eU, 0x3ad2935abdbe955bU,
  0xbe05fa4f3e13004fU, 0x3e619916be31b602U, 0xbe3388b63deb762aU, 0x3e36cc9bbebc0eb2U,
  0xbd34b72abe674e3fU, 0x3c6381543da05287U, 0x3db3cf773d4f6646U, 0x3d84229cbd1da4a3U,
  0x3e3c36ac3e4d6657U, 0x3d9a3fd6be3cd9b1U, 0xbe44fe413df392abU, 0xbe542eb33d2b1e32U,
  0x3dea188ebe6e1659U, 0xbea620d03dc8c734U, 0x3e1dfaa83e58d6a6U, 0x3d67ebb63da49bfaU,
  0x3eb9c5d33e3ef1c7U, 0x3d6c1d0bbe030c12U, 0x3e1502a8be3f2995U, 0xbdcf7f0b3e9d2517U,
  0xbdd9403c3e0ed66bU, 0xbe263a87be3a84c4U, 0x3d6c2c1f3e0c20deU, 0x3d0327f33e436e98U,
  0x3e475a123db491ffU, 0xbe0625153de28b9eU, 0xbe281b033cc043a4U, 0xbcc48dba3e77d4b0U,
  0xbdfd5102bd93becaU, 0xbe94a17a3d94a78dU, 0x3d438b523dfc6692U, 0x3e488d7a3e885104U,
  0x3e41490dbe1b1fffU, 0xbe877981bde13b97U, 0x3d4ae445be91b4d6U, 0xbd7034313d9919ecU,
  0xbaba64293d42ae1fU, 0xbdb2a5f93cfc3c5aU, 0xbd3d8282bee2b565U, 0x3e8cafcbbc14e02aU,
  0xbe2ab888beb6bc95U, 0xbe0d595fbdc9e7e3U, 0x3d6bebb4bd7ff456U, 0xbd877606bebeae07U,
  0x3e8d80f33dc51388U, 0xbd55d641be7f2de2U, 0xbdfdf319be000033U, 0xbe477b59bcca9a8aU,
  0xbe4ea7dd3d94427fU, 0x3dedfafd3e3aea37U, 0xbeb4bd0a3e8b9e05U, 0xbe3366e2bdc1715aU,
  0x3e934cc2be13d49cU, 0xbe4428643cf2adc7U, 0xbda462673e44b2f1U, 0xbe97887e3c4c2cb7U,
  0x3e98ea8e3e78b22eU, 0x3e926fc33d9bec70U, 0xbdbbdeb13e45cc8bU, 0xbdf42f9d3d340060U,
  0x3dcff257bcdfb3f0U, 0xbe03bab3bd72e287U, 0xba4847f23e396703U, 0xbca848e93ccc46e5U,
  0x3e36e2393e9bd9f0U, 0x3e849bc3bbe4fa10U, 0xbe11d3af3e33c41eU, 0xbe290249bb95778bU,
  0x3caf43bebd08ab60U, 0xbea656e63df5dd1fU, 0xbcc4d7283e60fe07U, 0x3bb04f963e34754bU,
  0x3db25e2e3d791f81U, 0xbd441d45be802c46U, 0xbcbc7891be1c2569U, 0xbe3445383eaafb78U,
  0xbe5816763e07f9e7U, 0xbea3ed883dd85016U, 0x3cbd4d61bc7c59e2U, 0xbcdf6f99be0b925bU,
  0x3eca5a413c97466cU, 0x3e8390adbe1c0727U, 0x3e68d89fbbdb95c7U, 0x3e9286273d192452U,
  0xbe7173efbdd2afd7U, 0xbdd0de263dd4b007U, 0x3cde191fbd80c40bU, 0x3c894a953ea2e8f2U,
  0xbd0993e3bd80b9adU, 0xbd78440dbe4c3b53U, 0x3e17a71cbda8f835U, 0x3d0153babd7e0150U,
  0xbea308893e26788eU, 0x3e753fbd3e5799feU, 0x3e26d2c13d024240U, 0x3e87fabc3df2118bU,
  0xbe2b0341bef65e6fU, 0xbe6bc2ffbd644dd3U, 0x3ea31b0c3c2f962aU, 0x3e32c9cb3dbd7947U,
  0xbe8637913e857df0U, 0xbe21185e3e5b1487U, 0x3e7a461abd4aa9c3U, 0x3e5b23f03e389a4bU,
  0xbd2f7465beecb651U, 0xbd0db4f23da1c787U, 0x3eb5994dbe3847d2U, 0x3e8e5de13e3716fbU,
  0xbea3ca463ea23b8aU, 0xbcb951433db35b94U, 0x3da53f56be5abf8aU, 0x3d4a51973e33f40dU,
  0xbd888f7fbed0a2eeU, 0x3da9c05a3d0d60e4U, 0x3e5b02febe0c80ccU, 0x3ece500cbdf587b6U,
  0xbe05236ebe492a70U, 0x3e183e01be48b8a4U, 0xbea9adcebe8d4a7bU, 0xbe63e4b2bd882ca7U,
  0xbd2b05e3be3c4b3bU, 0xbc7a754abe5e81adU, 0xbeb3690a3d9bf494U, 0xbe6d0064be28be0bU,
  0xbdb8d6083e29756fU, 0x3c947853bd865f2fU, 0xbefaaf27be582fe9U, 0xbeb103aebcb6a9b6U,
  0xbe6bc20d3db6e396U, 0x3df5a80abee2c1acU, 0xbe071be93e5435a4U, 0x3d0fd6d2be93b80dU,
  0x3e06a701bd35de5dU, 0xbe98d2d6be347581U, 0xbe965cc53e5ef524U, 0xbeb9595e3d2542caU,
  0xbd3a669a3e2c061fU, 0x3e635324be8ac519U, 0xbe9ab69a3e38eec8U, 0xbdde9f583d0f5595U,
  0xbe5ad55e3d86625dU, 0x3d7ffbc9bee3e72cU, 0xbe9744573ba7f2a3U, 0xbe9e8b74be1a5e15U,
  0x3e43746bbcf70ba5U, 0x3db23dfbbb4dfd04U, 0xbee7325a3d15c902U, 0xbda2688c3ca5436eU,
  0xbe4ec246bd3c0cf5U, 0x3d2dca11be016f1cU, 0xbcb3b62c3caa6dd2U, 0xbd9ffeedbe05995dU,
  0x3e824f393d4a2d11U, 0xbd52a8a2bdfbd2edU, 0xbe3deb89bda52448U, 0xbda2426dbd404118U,
  0x3a100948be0aa8f7U, 0xbb1ecddc3e10f479U, 0x3e3b74143e67d83aU, 0x3c63b00dbd8b9b52U,
  0x3e0d7a693e2caaefU, 0xbbb6011bbde9be95U, 0x3e70431dbe6f265eU, 0xbd71121f3e428af5U,
  0xbc27764dbc222de2U, 0x3dd5ed873e81c53cU, 0x3df61f70bc3ed208U, 0x3e86049c3c0988a1U,
  0x3e0b6c71bd0fbb5eU, 0xbdd3d642be4912c2U, 0x3dc3922abd91ad0dU, 0xbc8b0b9d3c142486U,
  0x3d5ac752be50f410U, 0xbd9d99f93cc5b957U, 0x3e2ab00c3d598adeU, 0xbe202f743e8d0b65U,
  0x3e3e92373b4d51a8U, 0xbe61b035bd5b027dU, 0x3d282e70be488a1fU, 0xbe836d253db0e526U,
  0xbe0c9f78bd47e135U, 0xbe6858043dd8456fU, 0xbd811cfc3d880ef4U, 0xbdcea7aa3d80e81dU,
  0x3e3391dabcec865cU, 0xbdf2ac30be022a95U, 0x3e2218debce1ba0bU, 0xbd7f88b33e364272U,
  0xbea52d23be245a22U, 0xbd484f90be043e26U, 0xbd1af2e6bc66a1bdU, 0x3db4df52bdf0b19eU,
  0x3da343d5bd6c0184U, 0x3d2d019dbea59c0aU, 0xbe159032baf285beU, 0xbe24d4153dbc5fb2U,
  0x3cba390dbe385e14U, 0xbe12914dbc841dc6U, 0x3da9c8f4bd45fd68U, 0x3d408236be6da5c8U,
  0xbdf3b370beaf279aU, 0xbe855da3bcfb1d63U, 0xbd9297a9bdbfcdb1U, 0xbe6fa4c1be6cc6bfU,
  0x3b91a54fbc9c3afbU, 0xbd94095abe9390c5U, 0xbda171d33c9c0421U, 0xbeab079fbda6ed1cU,
  0xbd9055ecbebcbca9U, 0xbeae0e4abd61a902U, 0xbdfdacddbde20881U, 0xbe07ebf23d988255U,
  0xbe91e406bdccadccU, 0x3cf72aae3c9adc39U, 0xbd9b744dbd9fae0eU, 0x3d8ea8b7be0dfe99U,
  0xbd235c81bd0dc975U, 0xbad16d27be520141U, 0xbe02e5cb3d2a3a09U, 0xbcdcdc573d8267e9U,
  0xbd94a1543bb906fcU, 0xbc7e5da53d8b7825U, 0x3c8a7014bddb39dbU, 0x3e008966be3b5febU,
  0xbdaa15cebe11cb1dU, 0x3ce7f388bd80a3faU, 0x3d5660b53db9f570U, 0xbc84d5c43c6b2623U,
  0x3dac7a343e825280U, 0x3de5e4ce3ca5990fU, 0xbc4d19d8be2ddb85U, 0xbd8f04b33e1721a2U,
  0xbe68c307bef2840cU, 0xbd9e80dd3e5aa4f1U, 0x3d8176273e4c0adbU, 0x3d76bd8abe43643bU,
  0xbead0e04bd467d96U, 0x3e3699073e25398bU, 0x3df11258be03e119U, 0x3e8a26c23e8b725cU,
  0x3e0b096abd963fdbU, 0x3d81d96fbe9cf5bdU, 0x3d22ddc33e315efaU, 0x3b91fc36be3be667U,
  0xbd4f3a1cbeadd88eU, 0xbdb80beb3e9c3120U, 0x3e483eee3dc1d8c1U, 0x3e9039bcbd09e9c9U,
  0xbe2df2d63dce1e95U, 0xbe030810bd3dddc0U, 0x3d946007bdeae209U, 0xbeb497413b414d22U,
  0x3cba7489bd161136U, 0xbd8e4bd7bce27072U, 0xbd10cf9bbb4fe213U, 0xbe9c0d3c3dcd4ac5U,
  0xbe63c1a2bdabd21eU, 0xbe3cf7a53e0004dbU, 0xbe29cdb2bc294ef7U, 0xbd97bf5f3d8142f1U,
  0xbe41caaabd3a3d19U, 0x3e8a5c4f3e060f92U, 0xbddb4442bd50af52U, 0x3e0422ba3db5bc21U,
  0x3e3d63b83e508e06U, 0x3e4f0357be5dafbfU, 0xbe5568a23e9a91e3U, 0xbe39bf8abdfc0ec3U,
  0x3c756e0bbe1e890dU, 0xbedafcdf3d9a8098U, 0x3e40335e3e4b5569U, 0x3da5c98dbe89e543U,
  0x3e772df73e6680f2U, 0xbd51b34d3d86c2c8U, 0xbd5fc1e7bda9fd57U, 0xbd9170e73e037da6U,
  0xbc98f6f03d7831f8U, 0xbee766cabe1ac042U, 0x3e2aac63bdedea52U, 0xbd70ea23bdb01e82U,
  0x3e07baadbe8cb55dU, 0xbe0b0d0c3e129865U, 0xbca748cebe9b2c78U, 0x3b2b33de3cdf5b1aU,
  0xbdb93fb4be96a702U, 0xbd2270223d18170bU, 0xba3ea3643e753208U, 0xbcbc2b6d3d220047U,
  0x3e22dda03e4760daU, 0xbbfa1fe8beaaec87U, 0xbe0ac6a43cae10d2U, 0xbe4fe7413e6219d2U,
  0xbc8d210a3d80be6eU, 0xbee2e7b3bd194203U, 0x3d7bdc6d3dc511e6U, 0x3d4f05a53dbb7b50U,
  0xbd3a62653d6ef625U, 0xbd8cc1ae3db721d9U, 0xbd6f20adbdf2bf80U, 0x3e2eed5b3e1f7e21U,
  0x3df662503e903136U, 0xbd02e8fabe29539fU, 0xbdadc15fbe52cbdfU, 0xbe910adb3dae5954U,
  0xbe06d627bf1374fcU, 0x3c1ec3793db9fe0cU, 0x3d400f593dee6188U, 0x3dc8f517be47324eU,
  0x3e84416bbdd9bae0U, 0xbe679d91be01d2c9U, 0xbcaafdb5bc205f56U, 0xbde19dafbddd5332U,
  0xbe1aec2f3d1c7239U, 0xbb3dcf4c3e06ae58U, 0xbe2aaca1bcdd487aU, 0xbe931cc1bd98bd91U,
  0x3e7044663c3ba81eU, 0x3d9941f8be27618dU, 0xbd8d7808bd3dd7b5U, 0xbee25b25be333490U,
  0xbdfe6d8a3e332eadU, 0x3c2997983e329722U, 0xbeb9e11c3e119b62U, 0xbe9c7f98be0339d1U,
  0x3da0f3ab3ca160eeU, 0x3e138447be24d956U, 0xbe1686543da3639dU, 0xbee21107bd210c87U,
  0xbb38c65a3cd3bdf5U, 0x3dc6901e3d2085d1U, 0xbee273213e7f3cbeU, 0xbe6d3aa1bd45bd6eU,
  0x3cfc5509bc3a603bU, 0x3d81a1803e6c0ffaU, 0x3e33384e3e057c9bU, 0x3e96b77d3cc376b0U,
  0x3e16a52ebdda865aU, 0xbe836435be089c77U, 0x3e9dc5f6be5a472cU, 0xbcd8a8eb3d1b1794U,
  0x3e0fa68ebdf47828U, 0xbde491933ea22411U, 0x3e6775debd3fee4dU, 0x3e1b04443e677476U,
  0x3e944bb93c88ab33U, 0xbe4bd280be173be9U, 0x3ebb8819be67ea90U, 0x3c6f6c11bd115518U,
  0xbdb430633b6d6b49U, 0xbe15aa67bbfda753U, 0x3e476e8bbdb8f00aU, 0x3e054f4f3c880a02U,
  0x3e32de66be01d7e9U, 0xbde9bbcbbd6e161aU, 0x3e26e368be2e5f07U, 0xbb8652b73de58b17U,
  0x3e0629a33e3d453bU, 0x3e89dda93d1bfd5eU, 0xbe67935fbe538b41U, 0x3db290223d968875U,
  0xbe8f8b79be78387aU, 0xbe32819f3d212ae5U, 0x3d5f82cb3e9a9cd8U, 0xbc539dfcbd71f433U,
  0xbec518debe04fe56U, 0x3e907e903e464053U, 0xbe1276b1bdca50a5U, 0x3c765cdd3e18a596U,
  0xbd788ac3be7d6a94U, 0x3e1e0e83bea68603U, 0x3d9956093e35b578U, 0x3bab0614be4039cdU,
  0xbe98d1ba3da14069U, 0xbd76668f3d53123eU, 0x3c340aac3d451becU, 0x3e04f719be1a16baU,
  0xbdaf3585bdbc5934U, 0x3c15ab86bdfac4d7U, 0x3e0666493cd0aa05U, 0x3c86b9483b94a065U,
  0xbc457533be8fa0d4U, 0x3e012daabd1e3455U, 0x3d6e5629bdfb3952U, 0x3d3f3a1a3e33a2ebU,
  0xbe77b45fbea9e7a6U, 0xbeb1a7eabdd2e7a9U, 0x3d6d2867be0d8d0fU, 0xbe702d64bdf0d477U,
  0x3cd784b6beb8f522U, 0xbc9c7e163e0878f4U, 0x3df38d713de867acU, 0x3da5f01ebcb6ae2aU,
  0x3e50b1c2bc6fb6f1U, 0xbe699326be5ada53U, 0xbb96cbacbd943847U, 0xbe8f80bc3e5fa3c0U,
  0xbcc63046be35b13dU, 0xbea6ac9e3dd5eaadU, 0x3e78498b3e196e66U, 0x3ddb60a13d8ee438U,
  0x3eb0bc3ebe303106U, 0xbe1e2b70bde2dc24U, 0x3d8a39ddbeb081beU, 0xbc718c063ea51725U,
  0xbeb82f7dbe482056U, 0x3dce76e13d181e2bU, 0xbe080e85be603433U, 0xbdb0001cbd4869e5U,
  0xbe40e6d2bef1d348U, 0xbe4f4665bf0526f9U, 0x3c49a95dbdda3168U, 0xbe9e6965bdeeea2eU,
  0xbeb911e8be14d783U, 0x3e423b633e528284U, 0xbd612778beafb3efU, 0x3e12fc22be34bb3fU,
  0xbe0ab399be90b4e4U, 0xbc0e0a1ebeed4a32U, 0x3e63b7093e1eb9c8U, 0xbde5e71ebd88ea91U,
  0xbe67f9a03d1f5a29U, 0x3a0207fe3deb5c2bU, 0x3d32a485bd02429cU, 0x3e6983ccbdd34e51U,
  0xbe612e2cbe51b902U, 0xbcefce9fbeb534d0U, 0x3e07f515bdbc6175U, 0xbd1dd1d5be090d73U,
  0xbdfd2524be24cf34U, 0xbc2a58abbeb102f0U, 0xbe7432093cd83d34U, 0xbe983ea03c938c81U,
  0xbc1fd5f23dfdb60eU, 0x3e1cf8c2be64d32eU, 0xbedb285c3e2bbe96U, 0xbe4e8cdfbde12e1eU,
  0x3d5e4f9ebe3555d1U, 0xbe224f41be3bcdecU, 0xbdc95ee03e2c2b92U, 0xbea6e124bb3721e2U,
  0x3d1b03523e70065aU, 0x3e62517abea4b0d2U, 0xbe7aaba03e322b29U, 0xbe5232933e459555U,
  0x3cb5fd4fbd9b1265U, 0xbe2b5b56be150ba7U, 0x3d32fe673e1f506eU, 0xbe923255be1b24eeU,
  0x3cf6705b3e57043aU, 0x3d214396bd8dfeefU, 0xbe9fd4e03d4dc814U, 0xbce46be13e28def4U,
  0xbca1a0ef3e2639b6U, 0x3daa1f2cbd9ff195U, 0xbe490774bd9ee2cbU, 0xbdfd16e73daac012U,
  0x3e04cf1abe4907e3U, 0x3d7737d6be11f009U, 0x3da01bb33dff02c5U, 0x3e7134473ddc3f19U,
  0xbedff034be4f47c0U, 0x3d9e20a5bd7a1fd1U, 0x3d14f70abda0db26U, 0x3de56d17bd8c8abbU,
  0xbe32fdfabe9a5bf4U, 0xbe9f54c7beb52eb5U, 0x3d85253cbe9e072cU, 0xbd069b28bb115c37U,
  0xbe568d19bce313dbU, 0xbdef07e13e10bde6U, 0x3e9d2fef3df35aacU, 0x3ebe2be13cf8b725U,
  0xbc8e8955be39c1e3U, 0xbe4e0070bdd7a453U, 0x3d7e170dbea257eaU, 0xbcb181683d96118aU,
  0x3e6907e73e235c87U, 0x3e0a708abe78f14fU, 0xbe53455fbda4d6fdU, 0xbec960a43dd3b2b2U,
  0xbd5b79573de4c790U, 0x3c9e3a273d716a1dU, 0xbde3bb2d3e97524dU, 0xbcc670a8bcfea02aU,
  0x3d6c435bbd7ccd57U, 0x3e0d0352bd96e926U, 0xbed9e249be8287bfU, 0xbe9e2c643d418ff0U,
  0xbe0a5f893cbba5bbU, 0x3dee4cbdbdd577b1U, 0xbdb5f3023e3a5413U, 0xbd8d018abe7dc147U,
  0xbe1638253c383c85U, 0x3e25df283e816459U, 0xbe39a287be0d936dU, 0x3e3da717bdcdcc05U,
  0xbee110dcbe34bf12U, 0xbd3805ddbe998827U, 0x3ddca5ae3e155436U, 0xbd48491cbe8c8fafU,
  0x3dea337f3e299593U, 0xbdb522ac3dd5d794U, 0x3cf3ce253d02cbf6U, 0x3e2e3bec3e1dd825U,
  0x3e4f9c92bd38e6edU, 0xbda539753d34af6eU, 0x3e523fbabe09a569U, 0x3e0caa7b3da41adfU,
  0x3e1e66dabe9f5dc3U, 0xbb18469fbe0e8cc4U, 0x3ebfd4493e1c2703U, 0xbd4c9b9f3e89b94dU,
  0x3d60c67c3df66c7aU, 0xbca1ef833dcc2520U, 0x3e0851f8bd8c3569U, 0xbebf12d83d3ba323U,
  0x3e1da7d9be94c710U, 0xbbf39a53beb18d98U, 0xbc819db23d99512fU, 0xbed31d043d8cb200U,
  0xbdc641d43e3f6352U, 0xbd8b02bc3d9ee88eU, 0xbed0bc383d7f44d5U, 0xbeee07ea3dd98b4dU,
  0xbde23a203e40583bU, 0xbec17ef3be2c0819U, 0xbd279f1c3d79f927U, 0xbc255289bd00a99eU,
  0x3bc1b2173df9444aU, 0xbda86393be2e5052U, 0xbe07431abd57bf7bU, 0xbdb5049a3e886351U,
  0xbe18c0c13e697facU, 0xbe37a0b93d0a5407U, 0x3defc07f3e2f4238U, 0x3e8233f2bc628554U,
  0x3e48f964bd4d9da9U, 0xbdff4672bdaf6d62U, 0x3e1daa53be054c13U, 0x3e49369c3e3ca002U,
  0x3deea409bcab7279U, 0xbdfd33f03e2f9d35U, 0x3e5941f6bd1a6726U, 0x3eed82023ec1194cU,
  0x3e3367eabea618d3U, 0xbe8948a1be205833U, 0x3e52bd34be2583f5U, 0xbd33b3cc3da56cfdU,
  0x3e5ab954be684daaU, 0xbe885697be64307fU, 0x3d0088783cdc1f09U, 0xbe39164d3d26ea60U,
  0xbe048b54bcff36d4U, 0xbcdaae873dab63dfU, 0xbdb763dbbd3569caU, 0xbe7a0bd7bd0de4f6U,
  0x3ede2e333dbc324eU, 0x3e44e1963ce73a75U, 0xbe2f7ce4be44b380U, 0xbe8f081d3e967596U,
  0xbe1875493e010380U, 0x3d2c42543e93c081U, 0xbe3e71a43e9d93d6U, 0xbe905338bcfbeaa4U,
  0x3d18f94cbdaaeea1U, 0xbd2be2153ea739fbU, 0xbe43441e3d2f2d05U, 0xbcfd19b83e078f65U,
  0xbd7eb0503e1bce2aU, 0xbd863e14be160cf8U, 0x3d936a633d15c7acU, 0xbcbe06653d8c0d65U,
  0x3da72e7cbd8828eeU, 0x3dd990da3d95764dU, 0xbcb09f3ebcac093eU, 0x3e17580ebe08e8d7U,
  0x3e2d86fbbdd6e58eU, 0xbe4180f3bea290c6U, 0x3df504b23d85b3ecU, 0xbdee5a523dda4ef6U,
  0x3e6c9ad3bde83907U, 0xbd92b3f13e1f9709U, 0x3ded2a0f3d1fd51bU, 0xbde923933f017413U,
  0x3e0ae3aebde5388fU, 0xbe51eab7be0994c6U, 0x3eac080ebda88d78U, 0xbdd9617a3d8d15a5U,
  0xbd1777ad3d0c9a11U, 0xbdbbb73b3bd6b054U, 0x3d8b9a243dc147f8U, 0xbe533d593d741a24U,
  0x3e6867b83ddef605U, 0xbe3cd052bc4769d8U, 0x3e4784c0bd33049eU, 0x3d1b5efa3e8cbf32U,
  0xbd82edfabe88d44aU, 0xbe2222423e6c08afU, 0x3dac6c0a3db34b53U, 0x3e971dca3d95a02aU,
  0xbe396c513e143042U, 0xbda97a43be40d613U, 0x3e2a17dabd48fc37U, 0xbe6ba0793c0877bbU,
  0xbd437114bf02ad6dU, 0xbd88330a3d09aa8bU, 0xbd3c551e3c7ab933U, 0xbeb24d37bde11a31U,
  0xbd6d7335bdcb56bfU, 0xbe830cefbdee0322U, 0x3d0ea51cbe941425U, 0xbeed5e7c3c3e3f11U,
  0xbd244d4cbe745396U, 0xbec1fcc5be150468U, 0xbc7ee6db3e330c5cU, 0xbe1a90473e717a9bU,
  0xbd815a1cbda114b0U, 0xbd3154d7bd9527b4U, 0xbe1a6159bc073741U, 0xbe8125d33e046724U,
  0xbe6ebc8ebe438112U, 0xbcecb9b73d2549efU, 0xbd260edd3e24c232U, 0x3d541fffbe809840U,
  0x3e02ca243dde1a71U, 0xbc559910be809d2bU, 0xbdaa3da5bc5472b3U, 0xbd8618aa3d8adb7dU,
  0xbe23ad87be794574U, 0xbdd32097bca7cb04U, 0xbd2e6900be4554bcU, 0xbe3f63c1bea24269U,
  0xbd8e4f9abe35d565U, 0xbe690c4e3d36f29bU, 0xbb13075bbe4269ecU, 0xbe19f1a9bdb20216U,
  0x3d15c894be5c27baU, 0xbe3552b0be7c0164U, 0x3dab58293e1a3d2bU, 0xbd6a7d83bcf259d5U,
  0x3c35eab03d06c04eU, 0xbd349e68bdcf7aacU, 0xbe9c85c7be833a21U, 0xbe8ac2cc3ddc2836U,
  0xbe128705be8fe70cU, 0xbdf9eef4bdcbf8afU, 0x3d0259df3cdb8faeU, 0xbe18eaf03d5c3092U,
  0x3c1d73f73d029bbeU, 0x3c6951adbe0fa4f8U, 0xbd689e5abd5bf872U, 0xbe16fb033e4c4ce1U,
  0xbe99280d3c4cf2cdU, 0x3e37698a3c30d42dU, 0xbc614a79be622b14U, 0x3dc7d737be33322cU,
  0x3e0d995abe7eb17fU, 0xbde39e4abd67ac00U, 0x3e07fe6bbcfa1984U, 0x3c566bcebcc2af0cU,
  0x3d9c3bf8be1f805eU, 0xbe554be03dec24a2U, 0x3d7456503d280d23U, 0x3d9f8f62bd20b47bU,
  0xbe6e2484be8dffb6U, 0xbe061b6f3e07cedaU, 0xbc879aa2be30a12bU, 0xbe13da0e3cb9c3daU,
  0x3cebcc763e5251cdU, 0x3e1b24fabe4fab93U, 0xbed94458be1817d9U, 0xbee07843be8f4185U,
  0xbea083133d9dd0ccU, 0x3e1fd806bde406feU, 0xbecbbe4c3dca56b5U, 0x3e13dc8fbe912bb6U,
  0xbce3b7f13eabe220U, 0x3eafba663d86da21U, 0xbf07d58abe51000fU, 0xbe30e1f2bd99d18cU,
  0xbddd58313ceace18U, 0x3e2648d2bd80ef35U, 0xbdb4a2083e909830U, 0x3e57c348be92e658U,
  0xbcd57d39bda89e09U, 0x3ec6d2ca3e44dc68U, 0xbe137e1cbea92b2dU, 0x3da48f88be52b8f1U,
  0xbdb399dfbe112675U, 0x3d2841fcbdb865c5U, 0x3e0363873da406dcU, 0x3cbdf6bfbeebde23U,
  0x3d955196be904c77U, 0xbebc0e71beb4fb26U, 0xbd83112e3dbe0e50U, 0xbe80bb5abe319cf4U,
  0x3d91a00f3de31a5fU, 0x3d9fb00bbe10760fU, 0xbe1810bfbe33d061U, 0xbd94ed843e1ba655U,
  0x3e5e7a5fbe3c2133U, 0xbdc52543bec03b4dU, 0x3de3721b3e2de584U, 0xbe8dfde33d7d9613U,
  0x3dab874c3dd0426eU, 0x3e0f5e85bcb41921U, 0xbda83e3c3d3a7bf8U, 0xbea656173d1cbbd9U,
  0x3e563653be7751b3U, 0x3e78f05bbec1038dU, 0xbc6a51a83e16ee13U, 0xbeb6bcb43cb1bba1U,
  0x3bccab783e1e708aU, 0x3dcbc2503dc957cfU, 0xbeddd1543daeb564U, 0xbece3ff2bbe89b6aU,
  0xbdb2aa193e3121d5U, 0x3cae29d43e2b368fU, 0x3d0dfe2ebc60b619U, 0x3e9d4fb63eb6c0adU,
  0xba3fb478bca85aaeU, 0x3d5771193caf30e4U, 0x3da2bec93cea802aU, 0x3cf6f9fd3d132e8dU,
  0xbe0adb1b3d8768a3U, 0x3e9ccaca3eaa57abU, 0x3e06349abcefbba3U, 0x3e01ce3cba70ea32U,
  0x3e05bdbebe7a9876U, 0xbdb0cdcdbda3a92bU, 0x3e83e9b53da8c696U, 0xbbe8658cbc70d543U,
  0x3d8a4048be3a130dU, 0x3e0355a73e457949U, 0x3e3e33153d9a2cc8U, 0x3dab22e13de412a2U,
  0xbe0a5868bde9d450U, 0xbe0e1509bc953325U, 0x3e59c733bd1e12cfU, 0xbe0273583db1fd56U,
  0xbdca43333dc73e54U, 0xbe0117febd94f9ceU, 0xbe2bc010bde03c39U, 0x3e28bebdbe6ac4f9U,
  0xbdccc115bd0747cbU, 0xbd3e41bcbd180554U, 0xbe349984bda1b940U, 0xbdd13aabbe23158cU,
  0x3e122da73d61304dU, 0xbd18293a3e13c6efU, 0xbe9bda0bbd454396U, 0xbc03a81ebd234a22U,
  0xbe5aa7e43d34b659U, 0x3dfca3f73e0e24e6U, 0xbda7d973bb546290U, 0xbcffb4ccbeb590f4U,
  0x3e06bb3d3e526a8dU, 0xbdafbbf93bb7b22bU, 0xbe404c6c3d978f23U, 0xbdf41dacbd1098f3U,
  0x3e223ac93e25d6e6U, 0x3e43c2bf3df98e86U, 0xbe6ed24b3e3ab9c1U, 0xbdaeee653dcea505U,
  0xbd6cad88bc0d6905U, 0xbd885a55be0d041aU, 0xbc88aa623e700fb3U, 0xbd84c5d83d73bdacU,
  0x3e4d69853e06c737U, 0x3dd188e4be0fb429U, 0xbd94dd2f3c3fc861U, 0xbde180e33e87a3b1U,
  0xbe41799fbdb26c70U, 0xbe51e008bd18e78cU, 0xbcf2ed683dc15248U, 0xbe3d7340bd58c726U,
  0x3e89bdf33cbfaaebU, 0x3d858977be3479ebU, 0x3d69a048be507c32U, 0x3c960f86bc8f5e30U,
  0x3d5268c8bd69846dU, 0xbe0ac532bc9c99faU, 0x3d77ff963c0666c3U, 0xbd26f3043d9d81cbU,
  0x3ce2196e3d1bf9f3U, 0xbde1b404bd8f5c2dU, 0x3d5c1afebd655074U, 0xbd9acc03ba45734bU,
  0xbe22349e3c0bc84bU, 0xbe78546c3d692153U, 0x3cc47c593adfddfeU, 0x3d631b0c3e94178fU,
  0xbe4bdc10be08fcebU, 0xbe0030fb3c8eb437U, 0x3dc3a0adbcab4a72U, 0x3ccd47683de45ecdU,
  0x3c33be4fbe167a09U, 0xbda132b5bd36f54aU, 0xbcbc2668be507968U, 0xbd7fec7a3d9562e5U,
  0xbeb73081be93bc43U, 0xbd371093bdc29e32U, 0xbdc0c822bd2b890dU, 0xbe639349bdb08f71U,
  0xbd648534be89e7b4U, 0xbe2370debe213116U, 0xbc17c87d3dc6607eU, 0xbddb5864be0bb6f9U,
  0xbeaf43d0be198820U, 0xbd8722c4bda10985U, 0xbe323996bd211881U, 0xbe2a20e73def16f1U,
  0x3d8948bc3e12ff1bU, 0xbe261332be04caf6U, 0xbeb796dbbd875a4cU, 0xbe44906c3a9801adU,
  0xbe5c9a22bd5246c3U, 0x3d5d16d73c7e27a1U, 0xbebdee54bde395e7U, 0xbbae62c2be301398U,
  0x3cc1f4b6bde9037dU, 0xbea47e423d1698dbU, 0xbe83ea8c3cfb301cU, 0xbe987f1bbde09059U,
  0x3b6843cf3e318441U, 0x3e1a761fbdd3625aU, 0xbe5d77fbbcb1921dU, 0xbdf9e842bbc07fbaU,
  0xbd99fc60bc7447adU, 0xbe412ee2bee973b3U, 0xbd9b561e3d796ec1U, 0xbe582cbfbe41c0d4U,
  0xbd2fea113d6102d1U, 0xbdc0f57d3d69573aU, 0xbe887b0fbd0b60b9U, 0xbdcddd8a3e117482U,
  0x3ddce1a2be906d25U, 0xbdfc0083bdf5d868U, 0x3e7b2c763d789999U, 0x3c9311493df1c488U,
  0x3dff93b53cf0f824U, 0x3e3433efbd3d72ddU, 0x3b88320dbbb7a7dfU, 0xbe53186d3e2db9dbU,
  0xbd4d9d68be86305eU, 0xbe4f4c9abc936d37U, 0x3e36d06d3e06cfaaU, 0xbda8c667bdfe6a06U,
  0x3ebc38653bdc62daU, 0x3e2d9675bdf95b9aU, 0x3de44c09bddf1b09U, 0xbdbf8d083de273f2U,
  0xbd845c47bd254f52U, 0xbe64866abe107d4dU, 0x3d2dd2f5be24d96eU, 0x3dbba7cb3d9cfd54U,
  0xbe083b14be88666eU, 0xbda2d52ebdcd3a8cU, 0x3ba7c57abd9f2a9dU, 0x3d5d5f17bdc31c37U,
  0xbeaf526f3d70a4b5U, 0x3e91aa593eb07ff3U, 0x3d438ad6be5c1fe2U, 0x3ec9ee743df4cc16U,
  0xbca7b02cbecfcd56U, 0xbcdd48d0be7c27bcU, 0x3e93978a3db388e0U, 0x3dad86a1be29e944U,
  0xbd84d396bd971fc2U, 0xbd037dc63dec61f4U, 0xbd1df959be74fe1aU, 0x3db754b93d4c69ffU,
  0xbe9c2bdbbebb14c5U, 0x3e9833c3bd89359aU, 0x3e243c863e094caaU, 0x3cc9f065be7b4e71U,
  0xbe16270d3d93db28U, 0xbe0b9368bdd3354bU, 0xbe71f9d83da233d6U, 0xbe87374bbd95c243U,
  0xbedf669e3cd1d24fU, 0x3db643b5bd8bbc14U, 0xbe14158dbd7473e9U, 0x3d1ffe76bc98f516U,
  0xbd29f35ebc25c4ccU, 0xbe6bdfdabcf4b345U, 0x3e4dd86c3e0f956eU, 0x3e03402b3e093597U,
  0x3d70e82abe08a78eU, 0x3c26bf803d92a02aU, 0x3d5da657bebac8f9U, 0x3e18380e3ddc1eeeU,
  0xbdff485d3ddca138U, 0xbe26b447be82adbfU, 0xbece7ebbbe3b0132U, 0xbe41a3e63d9e52f2U,
  0xbe419748be618272U, 0x3de3859c3d584285U, 0xbdec6becbe828d84U, 0x3dce5960bdd0e22dU,
  0xbeb18f93be6484beU, 0x3c9244a4bdc82520U, 0x3dadb4a63e1ee3e3U, 0x3dac95d4bdd58e5dU,
  0x3eb19bb83e6f208bU, 0x3e5a5475beccbacdU, 0xbe6aa0c93e48271fU, 0xbdeeebfc3d4acab1U,
  0x3d9ce75f3e3b394aU, 0x3e6734e83e16806dU, 0xbe0b20f03e31ef13U, 0xbe8a6c8c3dba6e69U,
  0x3d253a7b3cd3559eU, 0x3b4e85943c917cfcU, 0x3e3d82d63e0d4891U, 0x3e3fa2143c99caa1U,
  0xbeb4fba8bd2d209aU, 0xbdf29fb7be957723U, 0xbe6c33d4bea412e9U, 0xbe959d8cbdd24c8fU,
  0xbd62b6a8be802183U, 0xbe8ed7c5be900ca5U, 0xbe76784bbe8bb861U, 0xbdd7693fbe30391dU,
  0xbe530dd4be56ac78U, 0xbdd114663d904cc0U, 0x3e3305d83e1a2caeU, 0x3e2bded23db57578U,
  0xbe541aaf3e26305eU, 0x3d92a366beb735d9U, 0xbd8f6568bd88b727U, 0xbe8915a73e0521f4U,
  0x3e4970d83e45341fU, 0x3d33e914be72fb0cU, 0xbd8dc9723e6b55ceU, 0xbdcf5118bc4ce647U,
  0x3e46f4aa3e35f7bbU, 0x3e3bc7be3e338d69U, 0xbd5329473e0ae2ebU, 0x3c738ba13e2a5ad9U,
  0x3e07e5ec3e740d55U, 0x3ed89f8fbca2eccdU, 0xbe937565be8b36acU, 0xbe162d733c7f1ac2U,
  0x3dd0e8913cc671f8U, 0x3e2cdffb3e07f2e9U, 0xbdea72b23e91921fU, 0x3cf7e6a8bd335671U,
  0xbed1fbe5beb842d4U, 0x3d0b0bed3e2bd1b1U, 0xbd24539d3da56b43U, 0x3d50a7103e2e0542U,
  0xbe3cd72e3ceb5568U, 0xbd668586bec51d7bU, 0x3d509244bcd040d9U, 0xbe9c3162bde39830U,
  0xbbd2b42dbe131616U, 0xbe587b2c3dff03fdU, 0xbcf978863d31ffd3U, 0xbced3c3d3c8b9c46U,
  0xbe35de5ebdefa49cU, 0xbea1ac3abd0f4db0U, 0x3dab2307be9b2153U, 0xbcb0d2ed3d6624a3U,
  0xbd5dd1a1bea537f4U, 0xbe38ec9ebcf2f76fU, 0x3ce99b01bcc6d74cU, 0xbe2854183d54508dU,
  0xbce00836bda30a57U, 0xbec95834bd80da1fU, 0xbbb40635bea45384U, 0xbe5472f03c7a9597U,
  0x3e177bee3dfaf819U, 0xbe8a18c9be3fc2a1U, 0x3d8fcaf03debcd05U, 0xbe7e176c3e6bef5eU,
  0x3e5d71293de39014U, 0xbd5f42ff3ddd90a1U, 0xbdcdf688bca4b37bU, 0x3e050f543ea14271U,
  0xbe6daced3d9e9792U, 0xbe0c669bbe6fed52U, 0xbe054343bd2b909bU, 0xbe735dc1be80d266U,
  0xbe492715be6967daU, 0xbd69209d3cba0694U, 0xbe030bc5be677274U, 0x3dc102ab3dab2111U,
  0xbdd98e17bea3697cU, 0x3d94cbec3e0c21e8U, 0x3caddd3bbd3050c2U, 0x3e88d4f8bd8c8ff3U,
  0x3d1173b3be9bc3f8U, 0xbe1543ebbdf6936bU, 0x3dcd3d4cbea61a1bU, 0xbde6335ebe13ec97U,
  0x3e25f115be72d065U, 0xbc82adb3bdbcf12dU, 0x3d8c52a73e17d3a2U, 0xbde2d43d3e033dd5U,
  0x3cba5ceabdb8b3aeU, 0xbdf27c373dcad02cU, 0xbe3d637cbde2bc18U, 0xbeb385973e0f988eU,
  0x3d0292f33e36f3f2U, 0xbe55ec0bbe06e84aU, 0xbe56fe18bd8c2ee7U, 0xbdb59bc13caf71e6U,
  0xbdebafc7be7eb98eU, 0x3d49a8693da4b843U, 0x3db569753df17d9bU, 0x3e1f7a6c3d95873cU,
  0xbec53aa93ce14014U, 0x3e43fc513e212b54U, 0x3e301644bdad7176U, 0x3ecea17bbdd320b8U,
  0x3db3dceebe9de459U, 0x3b0efa95be41643cU, 0x3e10150f3e0b8727U, 0xbd6c718abd9f8a20U,
  0x3e6d3e2fbe88d86eU, 0xbe1d7a6f3e1a07aaU, 0x3e5aec9a3dca2073U, 0x3e1b37193ede56d8U,
  0xbe752185be81c54bU, 0xbea489963da63b26U, 0x3deac9f9be16a975U, 0xbe403c963dbf4846U,
  0xbe8537e13e4cc9d9U, 0xbd05e2843e0bfc65U, 0xbe59d764bd6cea2dU, 0x3d95999dbe49aee6U,
  0x3def00f8bd9828fcU, 0x3bd6f0c3be51727bU, 0xbd0cb22a3d9446e5U, 0x3d24320cbde225d5U,
  0xbe81b8bcbe591a93U, 0xbeb2d87e3dd00c8dU, 0xbd80991bbbeba249U, 0x3dcf48c2bd7a9313U,
  0xbec09512bdecb728U, 0xbde04348be2564baU, 0xbe87e1f4bd86edb9U, 0xbeaccccabdaa3bbcU,
  0xbc1d489f3e27819eU, 0xbe6c9050bdad5c2fU, 0xbc8cbcf6bd642797U, 0xbd8bff5cbeda359dU,
  0xbbd37a7fbeb01dfaU, 0xbda6cdd43c6656a3U, 0xbd50a5603b97857dU, 0x3e115e163df08e01U,
  0xbe76050e3e43cd52U, 0x3e533f84bd9f8efdU, 0xbdfe012d3d3fb952U, 0x3c0fa388bd7ca34aU,
  0x3ec438a83d89e8f3U, 0x3dcb5ae0be5b0af9U, 0x3d2391193d2f7d32U, 0x3e4af3a83ccc1af9U,
  0xbd7910afbe4ea642U, 0xbeae4f51bc78704dU, 0x3e81f1b5bc852d96U, 0x3e0692eabbcd66b9U,
  0x3dbe2b3fbd168cecU, 0xbe13df07bd267d58U, 0x3bf56139be8cbad8U, 0xbe2fab793d9ac7b9U,
  0x3e60de593ebb3630U, 0x3d88142bbe3a948aU, 0xbe35b8c4be9efdc2U, 0x3d909ea73e267389U,
  0xbe356de6becc72cbU, 0x3e2e58653e705821U, 0x3d5fbb983e96309dU, 0x3e1a9000be8eda96U,
  0xbd0d2cfebda2d2deU, 0x3e8da59c3c7cb2ceU, 0xbe4a38d4bd94c491U, 0x3d9886b5bd79775aU,
  0xbdd2d024bc0f717dU, 0xbc33fe5fbe2afd49U, 0xbcc1e10c3e0b3333U, 0xbd0f74cbbdf54ab5U,
  0x3d2ae326bde39cf4U, 0xbd2b03093e7821e0U, 0x3de10886bd1beba8U, 0x3dc357a73dafaa01U,
  0xbd3c4894be99b0f6U, 0xbe88524ebd692ed8U, 0x3d242775bc895320U, 0xbe8843e4bdd1c3f2U,
  0x3e2179e23cbd4ef5U, 0x3e34b4273cef7790U, 0xbce08f80bbcc7d9cU, 0xbcc407523dadf347U,
  0x3dbeff38bdad6e20U, 0x3e10e6c93e035a31U, 0x3c52b45e3e61697aU, 0xbe4c89abbdcba25bU,
  0x3e125b97bd7cde0fU, 0x3e9225febd494bfeU, 0xbe2ffee4bddc3653U, 0xbee00725bd578360U,
  0x3e26fa0fbe71f865U, 0xbe1da4173c6a1a38U, 0xbd7520aa3d56f791U, 0xbde62f933d00d386U,
  0xbe1e90a1bde52e8aU, 0x3de548923d3122ebU, 0xbda8a125be87f0afU, 0xbc5b1fb73d5effadU,
  0xbe00bce7beb04211U, 0xbd815154be00d041U, 0x3de0baebbd1dcf3fU, 0xbd929cb7be176316U,
  0xbea16306bd411e20U, 0x3e3cead03db97b55U, 0x3dc37b8e3d924dc8U, 0x3e9ba5e33d89eb8bU,
  0xba25ca54bda322f6U, 0xbd9f4569be2a7742U, 0x3dfec8c9bbe55374U, 0x3cd8035fbd12eec3U,
  0x3ea25e5dbe655b6cU, 0x3e6cd58f3cfc0971U, 0x3c8e0b433e25d8d1U, 0xbe779e273eb717a0U,
  0xbea558b53dcb575bU, 0xbc2247f13d46a6a9U, 0x3e2a9f153de7900dU, 0xbe606541bd6e7ca6U,
  0x3e45cde13e5296b8U, 0x3e9a74ecbe90aa1aU, 0xbefeb2c7be761ec0U, 0xbf0a355fbe096492U,
  0xbc1c7e60bd8c1bd8U, 0xbe2fc6383d9b6bb4U, 0xbeb9dc313e797907U, 0xbd8d85063d81f7afU,
  0xbedbc6f3be6f1c89U, 0x3d44a6203e1ca379U, 0x3e9cc1f63d5eddb3U, 0x3e969e0e3e100ccdU,
  0xbe1e9d133d122210U, 0xbe140e89bee059c8U, 0xbca24fa8bdb33e45U, 0xbea14a92be4fe241U,
  0x3e67663cbdb33aebU, 0xbe8a895139fd9d37U, 0x3e35de1f3ebf86d7U, 0xbdb1d3193cf074edU,
  0xbe2172403d8c91b7U, 0xbe0486803e44661cU, 0xbc9ebab9be920262U, 0xbdf2d1ca3ddca422U,
  0x3e4e9a313e9d00cbU, 0x3d85dfd3bee60610U, 0xbe58f3a4be0d05cbU, 0xbee036d63c4a59fcU,
  0xbc010170bdf3c5d3U, 0xbdc951cd3e4f1bacU, 0xbe9ec18b3da486a8U, 0x3d0e17d03d311893U,
  0xbe90c08ebf00549fU, 0x3e69557f3e4b19abU, 0x3ddcdebcbdd207d3U, 0x3e832449bd4af6fbU,
  0xbdb252a1bdfb2110U, 0xbe20d2ddbe8bca31U, 0xbe75df413c32ad46U, 0xbee3dabcbe5bda8bU,
  0xbd8cddfabdb39d1eU, 0xbe84ad453dba3644U, 0x3e1d8f7abc5ff33aU, 0x3e64acc2be0abbe9U,
  0x3d838ae5bdc95cbdU, 0xbe8651a9bd7a3268U, 0x3e34ad0ebec56e5dU, 0x3d75e5083da173a7U,
  0x3dddfc63bd46a614U, 0x3cd51c2bbe26e9f3U, 0x3e3fe45d3d087fa9U, 0xbde45d743d5d4ca8U,
  0x3d859f4aba489e64U, 0xbd275b863dc2240bU, 0x3bd11994bd7c54d8U, 0xbeb971e73c7e9b44U,
  0x3e6344a5be62bb72U, 0xbe67928bbe556182U, 0x3cdc287a3e7bf6ccU, 0xbe83fc3e3e3e5acbU,
  0x3e5a83f63db974d1U, 0x3e0dcb183d4d9004U, 0xbe05ef33bcb6637eU, 0xbe99ca493e8154f1U,
  0xbea8001f3e00ad35U, 0x3edfbf6f3e5b9fceU, 0xbc82ecb8be4a747dU, 0x3e75e4c9bdde3387U,
  0xbe1c8afdbeeda5ddU, 0xbe064275be3c5326U, 0x3e3f6a023e48a92dU, 0x3cb28144be2b3a8dU,
  0xb9aa9b7cbdc2ba12U, 0x3da127543e76d999U, 0x3e2c37e9bde727d5U, 0x3e1bd50b3e09c196U,
  0xbdeb2839be9ca721U, 0xbea3d2e2bd68d077U, 0x3e3eebe6be1d9cd4U, 0xbcbbe265be02a659U,
  0xbe1fc161be1048c1U, 0xbd60f61e3e02ac7eU, 0x3e36fb0cbe0aa1bbU, 0x3dc61ae4bd4cb519U,
  0x3d62f381bec1276cU, 0xbe8eb721be07be2eU, 0x3e74229cbe68cd03U, 0x3c8b85973cff82ecU,
  0x3da0febbbe2d9d70U, 0x3dda7bb0beacf120U, 0xbe7b96d7bde90a1dU, 0xbe8276c8be13b297U,
  0xbc8819743d7b7741U, 0xbd9326c43dad86adU, 0xbecaa1873e21d8a8U, 0xbe75b7a03cd05d06U,
  0x3cdb218f3d8cdfb0U, 0x3eb34e4c3dfc5f74U, 0xbe5315cdbe17c510U, 0xbd4f8ac3be6e93e3U,
  0xbd7789f2bcd08918U, 0x3daa2071bdb24ebcU, 0xbd96e8be3e247143U, 0xbca40540be6124e1U,
  0xbe6279853e29cb0aU, 0x3e263d9b3e4da00dU, 0x3ddf3561bd919ddeU, 0xbd9571e9bde742deU,
  0xbe311aefbaf939ffU, 0x3de25f1fbe612d3cU, 0x3e354f043ddcb41eU, 0x3e3f1af7bdac0bccU,
  0x3df071b33dd9c9ecU, 0xbe30e1d3be138f20U, 0xbe50ecadbdf1400fU, 0xbe444d75be24c811U,
  0xbe1d3db73e006a1fU, 0xbd668dac3e102bc1U, 0xbe1492e3bd3f4cc2U, 0x3d8231013c875482U,
  0x3d257e703e890deeU, 0x3daf4b6bbe4a00b7U, 0xbe938c71bd05d97dU, 0xbe02157fbd5a659aU,
  0x3e0534fa3d897069U, 0x3cb534483e10f6daU, 0xbe4e8f9b3dd9df39U, 0x3dcf054e3dd9843bU,
  0xbe8bafb73d2ab57dU, 0xbd9f47d5bd24036aU, 0xbe0c6e00bd5e985bU, 0x3caf7a5abdf61b07U,
  0x3e49ec0cbdccfef1U, 0xbd732effbe3469c9U, 0xbc9fdb4ebdb15b75U, 0x3d9575fcbd8516feU,
  0x3dacbbaebe90e4c5U, 0xbe05d1843e9b0958U, 0x3e36a834bdd95043U, 0x3e59fc403dc1835fU,
  0x3c943af5bda649e8U, 0x3b2f969cbe133ff9U, 0x3e92332cbdfbecf4U, 0xbe399267bdc48446U,
  0x3e89c1b4be63fe18U, 0x3e3738383b9446d9U, 0x3e3a9b02bd868a28U, 0x3c0a7c753e78e4c1U,
  0xbbe07deebcef931cU, 0xbe364d073e2e6086U, 0x3e032be5bd052563U, 0xbea80500bd6a981aU,
  0x3e1ee7173e1bdaf7U, 0x3e7f4126be0314daU, 0xbdebc67db93c198cU, 0xbeb36efbbcd71bdeU,
  0x3e5692993da9a274U, 0xbd560fe63dc08ae8U, 0xbe10100f3deb359eU, 0xbdddac233dbedf45U,
  0xbe8fa9b8bc23d81eU, 0x3e79937a3e845eabU, 0xbce1ddd3be257545U, 0x3e61be9fbc7cdc20U,
  0xbe364634be609de8U, 0xbb1614dfbe1ebe9cU, 0x3e52e9213e5ca385U, 0xbd3de5c43bd13a16U,
  0x3d9ff68fbe589c1eU, 0x3d1191ce3e919978U, 0x3e6094693d4b872bU, 0x3e7760683eae4e26U,
  0xbe7e3f8cbea55459U, 0xbde2445ebdb487bdU, 0x3e939f97bdc82703U, 0xbde8eb3bbe4f6e09U,
  0x3d84446ebe2377f3U, 0x3df6df41bd3805bdU, 0x3d5cff3abce26b87U, 0xbe13750a3e704e7eU,
  0xbd887a01bdd13fe7U, 0xbe288afcbd983d84U, 0x3d2e7db7bdb30cf0U, 0xbe6d427bbcedc319U,
  0xbe9d1a03be86b6f3U, 0x3db49bdb3c0ef04dU, 0x3d5dcefe3ddb1c16U, 0x3e20b947bdca8c0bU,
  0xbe3126da3dae6280U, 0xbc76df73be4b00a5U, 0xbe8349563c8514c9U, 0xbed1caa9bd486285U,
  0x3b8aec5cbdb5f2d8U, 0xbe96e9d0bdda7eb8U, 0xbcad74ee3df801d5U, 0xbef7ee4bbe8ad0d4U,
  0xbcd08cfdbe4cca7fU, 0xbe147fe63dcd312aU, 0xbdc78d4abdb2f2cbU, 0xbddeceeb3ded7b2fU,
  0xbd9ab2743e519acbU, 0xbc4f32fb3cedc015U, 0xbdd87a70bed14705U, 0xbde86a1cbd8a1eeaU,
  0xbca9ee5ebf2be02aU, 0xbdf8a66c3d2e2478U, 0x3e37e83b3bb80388U, 0x3e60d76abd518d78U,
  0xbe3ec232be86e1adU, 0xbe294e083a425736U, 0x3e3b9b493e179b91U, 0x3e3b61623d8418b4U,
  0x3d65d6403ccc04f6U, 0x3bbecb14beaefd82U, 0xbe5db78bbe858df8U, 0xbec3f93cbd1f5645U,
  0x3e3970b03d874bcdU, 0xbd670325be679667U, 0x3d881905be1998f2U, 0xbde971e43dab829cU,
  0x3cbdc948bea99bdcU, 0xbd3df4883e071be1U, 0xbb99f97dbe0c296fU, 0xbbca2d823d121511U,
  0xbcd206903e640164U, 0x3e375f1bbdf6113dU, 0xbea8f841beee783eU, 0xbe45396c3e2bafbdU,
  0xbe5f872fbeac14d0U, 0x3e5c00093e0b21ddU, 0x3cc477683e34c166U, 0x3e216019be894df2U,
  0xbdce7ba9bed432e0U, 0xbe8a63c8bdfbda16U, 0x3d90af513dc75d4bU, 0xbd90e6f6bd4eb1c9U,
  0xbe0c2dcfbd30cb12U, 0xbe26408fbe7d3bf1U, 0xbe016aadbe0c0627U, 0xbe43592a3dc16820U,
  0x3e2000b93e0b4402U, 0xbe136404bd30d302U, 0xbda58919bdddf2abU, 0xbeb92a48bda9602bU,
  0x3d631226be9975cbU, 0xbda3a7093e000127U, 0x3db0aed0bdd04675U, 0x3dba92c33e3b0642U,
  0x3cbc48c53e3a5c2fU, 0xbabe73303d8606a2U, 0xbe2867b6bd9d6080U, 0x3d46c1653ddc5a8eU,
  0x3d74d2403d28471dU, 0x3e16e4f83cf104b2U, 0x3dcf6d3a3e246374U, 0x3e3388f13b9feb5aU,
  0x3d80b11b3e43f71bU, 0x3ddd5006be18db46U, 0xbe2f1a51becea535U, 0x3d2985b9bb844abfU,
  0xbe120e52be62abdbU, 0xbda7a1a03e12067dU, 0xbddaae693e1e3f53U, 0x3dad77dfbe293cdaU,
  0xbe63e2903db21fbfU, 0x3e84a0573cc48219U, 0xbe70274dbec498eeU, 0xbc4e30a6bdf73a1fU,
  0xbe541b7f3a80b967U, 0x3db018d4bddfd3cbU, 0xbd46a6ec3e463154U, 0x3d43d755bea85e16U,
  0xbd670ed4be9fa44aU, 0xbea2d7b3bcf2f754U, 0xbd85b7623ddaeec1U, 0xbd7c3062bdc7ace3U,
  0xbe2cc4743e271163U, 0x3e354437be7eaa20U, 0xbe9e92bb3c845407U, 0xbe88ada73dc53107U,
  0xbdd2dd4d3e33a9a7U, 0xbdf5ad90bc881410U, 0xbe88a56cbe6386bfU, 0x3df0ed723e022a96U,
  0xbe7276d0bdc38fc6U, 0xbcaaee833d1057ebU, 0xbd5cadf3bd032e2aU, 0x3e19f937bea0c517U,
  0xbdaa7ed4beadce05U, 0xbea5b69bbdf21030U, 0xbb60dc323e0a3d1fU, 0xbe5a6105bd478e02U,
  0xbdbe1a363e2f7564U, 0x3db16bd9be5d8f7aU, 0xbe9780023dd33369U, 0xbe81e5373e48f443U,
  0xbd9c9ba23d879598U, 0xbe86503fbdd277e9U, 0x3e41b6a33e43ffc5U, 0xbd5e623dbdd34a66U,
  0x3eca0f233e0d2eedU, 0xbdb1f4d2bde9f7beU, 0x3da90fb0be8ffac7U, 0x3dcdc99c3e229ee5U,
  0xbddacf26be850f90U, 0xbcf336c43db73133U, 0xbd29b1383e10e4dfU, 0xbdb779143e32849aU,
  0xbdfccf493da642cbU, 0x3da762ebbec26cf9U, 0xbe5b17773e12cb0bU, 0xbeda54023dafd55dU,
  0xbcc1ac33be971551U, 0xbe8af582bd5a9453U, 0x3ddd598e3e89b6aaU, 0xbe68ce8b3cad925cU,
  0x3e1a83bd3da81fcaU, 0xbd1233e0bd1f9a76U, 0xbe844df0bca66efaU, 0xbebb374e3e8e6268U,
  0x3e12e10a3e41a6d9U, 0xbe9dc3163db86157U, 0xbd03b1c4be416633U, 0xbe3339253e6b8f26U,
  0x3d63d39bbe6a3fb0U, 0x3e561cbc3dba9efbU, 0x3d89c2a73e26cc01U, 0x3e0ab41d3c067fb0U,
  0x3e394400bd52aa4aU, 0xbe1a1f393be709e0U, 0x3d125a013c65d626U, 0x3d9e28e73e954483U,
  0xbd2e9db9be2e860eU, 0xbd016ded3ded14c7U, 0xbc99f840bd2c47a9U, 0xbe8dc6fb3ca0763dU,
  0x3ddd8d7d3e0771b4U, 0x3e85ec73be485d9dU, 0x3cc73295be06c910U, 0xbe559afc3e4d7806U,
  0x3db4d1e33db8133fU, 0x3d894c0b3e0b6fd9U, 0xbe0ca8f63eada739U, 0xbe73258b3e51125dU,
  0xbebaacdebdb75237U, 0x3d8d68bebde7cf10U, 0xbe074f48bba30b0eU, 0xbe694e60bcddc773U,
  0x3dd5554ebcdc42e4U, 0xbdf15217be9a985fU, 0xbd07577d3e5fc1f4U, 0xbe3a50873da513e0U,
  0xbde15e483db9dd40U, 0x3d4c24733e88cd1aU, 0xbd36c654bdc4e75dU, 0x3dba427abd0465d2U,
  0xbd966ca9be6d37a9U, 0xbd1c50b7bdd6807cU, 0x3d996000bdb05268U, 0xbe037a1ebe5f5e8fU,
  0x3e143fefbd1da88fU, 0x3d1cf0f13e1660a9U, 0x3c95568a3d2dfc9dU, 0xbca3da233e93a9faU,
  0x3dac720cbd9914c3U, 0x3d5ae73d3b7c0606U, 0x3d659c843d1038b1U, 0xbdd3e6c8be337024U,
  0x3ccdb9783e3e327fU, 0x3e940b38be1d95b8U, 0xbe71293cbd7b640fU, 0xbe0bff823d02cc17U,
  0x3ea9f9563d9d58f5U, 0x3e00a9343dd522a9U, 0xbe5c404a3ea4edebU, 0x3d75545a3da2fcf4U,
  0xbf037f77be093c41U, 0x3cb6bf82be35d5a4U, 0xbe09891dbbb74833U, 0xbe518cccbe226417U,
  0xbd2f46c5be0d146dU, 0x3d73f46abe70ac83U, 0xbe60fe343d6b989aU, 0xbe6a82d03d78a47dU,
  0x3d3db400be663436U, 0xbd2831a93c24aab6U, 0x3dcb44f63ca74c1dU, 0x3d6a759e3c2d7ceaU,
  0xbe28c637be307f8fU, 0xbe183f2c3d65f982U, 0x3d485ce5be1bb5bcU, 0xbe2ecd99bcbf7bbfU,
  0xbcd0a8053d4f60ffU, 0x3c9c4d59bd256b97U, 0x3d44f320be17feecU, 0xbe28e04abd84c1d6U,
  0xbd40bc28bea29080U, 0xbe9d97793d4034f0U, 0x3c49b813bd06733cU, 0x3c204d32bd9a8601U,
  0x3d4bd9753da16658U, 0xbe0f22693d8bdd19U, 0xbe031a0d3dadb21bU, 0x3e3fa68d3cd7390fU,
  0xbdb567c93e617f2eU, 0xbb81c73ebddfa6a4U, 0x3c38be303dbdce5dU, 0xbe3f7bb23e0caa44U,
  0xbc2ca431be279140U, 0xbed05ea23e310029U, 0xbc05d1c33ea6b05dU, 0xbe042eb5bd8404bfU,
  0x3e9498703e78fa16U, 0xbdd220e5bd7587aaU, 0xbd2ea8c4be12bad9U, 0xbe380fcf3e3bc91cU,
  0xbe4426e33c5cb157U, 0xbed93ec9bd2cbba8U, 0x3e87650f3e5c36c1U, 0xbd405565bda45616U,
  0x3e7aff5fbd9995b8U, 0xbf086f6a3d2a9ae7U, 0x3da570d5be8c26e8U, 0x3ce760ad3ea4aa3cU,
  0x3d179f0bbeb9aafcU, 0xbeec5cf4be3ac919U, 0x3b7e71ba3e1606c1U, 0xbe014681bd8bd136U,
  0x3e5764d83e61ff0cU, 0xbc2e4561bc1b92ceU, 0xbe6e683cbd92cfb0U, 0xbe62b7553eb26bf1U,
  0xbe93bd9b3e4bd5cdU, 0xbed39d11be291c17U, 0xbc609038bcaec45fU, 0x3c0a6a04bec10174U,
  0x3db7dae0bdd29cd3U, 0xbdd1aafd3dfe0d35U, 0x3c7a9894be81c163U, 0x3e12346e3e4097d7U,
  0xbdbe1a273e191142U, 0xbe13bbb8babd3f82U, 0x3d08c6b1beba929eU, 0x3e5e71f03e1e4a01U,
  0xbf30f0fdbf77e394U, 0x3e622ff53e3a24cfU, 0x3d7308033c45a808U, 0x3e115f3abeb34435U,
  0xbe5481523dcab51eU, 0xbe12f074be044164U, 0x3dd23889bd8ad373U, 0x3dc2d2dfbdbaa3b0U,
  0x3e317d34beb3167dU, 0xbe9a536e3dda0100U, 0x3de38ec7be77bf9dU, 0x3e33d3253e173983U,
  0x3cc5ec5c3e9b81e1U, 0x3dac05fa3dcff93cU, 0xbdc30b1cbf0dac2eU, 0x3eb31a173e8a59fcU,
  0xbe316c10bf093700U, 0x3e90d91c3dada68bU, 0x3e0a3ff83e26ec79U, 0x3e7aaae7beab0ffcU,
  0xbe27f4c93d16407bU, 0x3e501be23c50afffU, 0xbe2471cabe30916fU, 0xbdbdb5ff3db231e8U,
  0xbe0b7d89be27f1e8U, 0xbdfafe12bc60709bU, 0x3c98314abd554a2dU, 0x3dae3afabec6ad81U,
  0xbddc2fdcbe8ec254U, 0xbdaae4413e3cbea7U, 0x3e2ea64fbcd7bf84U, 0x3e21f5f0bde2e98bU,
  0xbead43c1bde831e1U, 0xbe500c2bbe365144U, 0xbe1b516dbdee56bfU, 0xbec67161bde92b99U,
  0x3ddf9caf3e756d4fU, 0x3e2d56cbbe16d124U, 0xbde5acefbd88316cU, 0xbde8e2a83d9884aeU,
  0xbdc04532be7c20aeU, 0xbd041f693e178d5cU, 0xbda69fb33e9e644aU, 0x3d9a6c9c3c19e454U,
  0xbe56f6f6bc183e58U, 0x3d4c7b143d14eb0eU, 0xbd82c949bbd4de11U, 0x3d97ff693e4d9b7fU,
  0xbca5f189bdaeed0cU, 0x3d7b9452be057783U, 0x3dcdbc053e1b148cU, 0x3e02e694bcf87616U,
  0x3cb3b104bebc0759U, 0x3d98c6abbd7b4fd4U, 0x3d23b6413e05009eU, 0x3d1c3e7abe742256U,
  0x3e0c5a313dd5821fU, 0xbdb9f269be2cfa82U, 0xbe0fc206be144cbdU, 0xbee376dc3d1830eeU,
  0x3e4eb8623d010336U, 0xbd658bb6be2030fdU, 0x3d756ed5bde7c0adU, 0xbe6c7fec3e03f613U,
  0xbe376771bda14b09U, 0xbe3f7cf63e6ff35aU, 0xbd4a8793391c1502U, 0xbe826a0bbdbbcd20U,
  0xbc343f8fbddab197U, 0xbde99b0dbe0f2be0U, 0xbe31550dbb4e03baU, 0xbdfdb983be44e6d6U,
  0x3e1ae6593e215a28U, 0x3e01cb57bc6f3df2U, 0xbe95db3e3e5fe56aU, 0xbe1ebd763d846a3fU,
  0x3c4a0093be78908cU, 0xbd88ad99bdc70dbbU, 0x3c71ee6dbd12fe7fU, 0xbe2072b5bec1d60dU,
  0xbe1b0765be2b6d01U, 0xbe4f78c6bd4e6055U, 0xbe26869dbde02da0U, 0xbebeb4c13d71a0baU,
  0x3e300d8abe350705U, 0xbe9bf2c4bdb329b8U, 0xbdc97f19bd8fa403U, 0xbedcd456bd40b86fU,
  0xbdf510fabec8ad76U, 0xbe6fb91d3d93a9d8U, 0xbddc0c46be6344afU, 0xbd8d66963d9358b3U,
  0x3b1210493d75e247U, 0xbe25d967bdb4ae58U, 0x398856f63e1fcae0U, 0xbd8c881fbe317df7U,
  0x3e12e39c3cb2ee9aU, 0xbd25c5733ca2910aU, 0x3c4cd065bdadbdc2U, 0x3dd841a23e4e5497U,
  0x3eb66a3ebd95d886U, 0xbe1e4cfcbe854376U, 0x3d8339cabdda87ccU, 0xbbf8a38b3eb1e45aU,
  0xbc49c39ebe0decffU, 0xbe767d593e4a07feU, 0xbdc97e43bde6deeeU, 0xbec4ea4a3e2a9b8fU,
  0x3cc95cde3ce19c11U, 0x3bf8c9ccbc180f13U, 0xbe1852be3cf37f58U, 0xbdfbd2693d7f314cU,
  0x3dc2a1493c98d072U, 0xbd99ab14bdb7b0aeU, 0xbe2128403e3db0e5U, 0xbe38494e3e64b37bU,
  0xbe35b292bdac41b8U, 0xbeb520eabe340abcU, 0xbd31cce13e90f28aU, 0xbe858c823d4bc0f7U,
  0x3dfe70623d9cdaf0U, 0xbe1b2301beced45aU, 0xbe86f9c7be01c3abU, 0xbe3068f63e272195U,
  0x3e1bf1a2be33e881U, 0xbe731c803d26533bU, 0x3d023fe9bc05994bU, 0x3e8ee7303e15f191U,
  0xbe6ca417be3ae948U, 0x3c23ca633e23f676U, 0x3de0fdd5be59a79dU, 0xbe2b34bfbe011524U,
  0x3da7c0b53cd56bb0U, 0x3e7980d3be520bf9U, 0xbe08b968bdf47938U, 0xbe6a6bdfbd03dc94U,
  0xbd46178cbcd5bae9U, 0xbe23735f3d13a373U, 0xbe317b8d3d02ac03U, 0xbe63733bbe4bfc95U,
  0xbe3060283d9b74a6U, 0x3d67144abdeb6f75U, 0xbe094a933cc1f215U, 0xbe72e84ebeaf6952U,
  0x3d5096bdba7e8e8cU, 0xbb97bee2bd6e0451U, 0xbd892f35bd8f5476U, 0xbae4615b3d786d53U,
  0xbecd641a3e5d7647U, 0x3e3a3a433e2a423fU, 0x3d082c453b39eb57U, 0x3de8ff6f3deae5f5U,
  0xbd152cc9be02cf00U, 0x3e2f031bbe51c1b9U, 0x3e6564f83d7d927eU, 0x3debdd643ce99e3cU,
  0x3de06164bd6ecb79U, 0x3cf78c473e4b3659U, 0x3cf0821cbdab7989U, 0x3e1e37f93eb16ceeU,
  0xbe369d6dbe8940f0U, 0x3cf65e673c85f8f3U, 0x3e5ee0c2bce3399dU, 0xbd1a9333be75c941U,
  0x3c835ef8be25dca1U, 0x3e0f5532bddb41a7U, 0xbd5e7297be031dfdU, 0xbdd67747bc656a7cU,
  0x3c7fce26be1621c6U, 0xbe265477bd095bfaU, 0xbcb993b63d3f2181U, 0xbe2128a3be1f3d39U,
  0x3de9625abc446856U, 0x3d5323f3bc30e197U, 0xbd6075783d8caa18U, 0x3dab59c73d8fda95U,
  0xbb155a063dea0f09U, 0x3de3d3043db5f5f2U, 0xbd8991bf3e36a44aU, 0xbe69ca653dbea752U,
  0x3dbbcf87bea284e5U, 0xbe991836bcf00954U, 0x3e363f633e9c4637U, 0xbd50987cbd2d8117U,
  0x3eb9ccce3e43db87U, 0x3ded73e6bddc4da4U, 0x3d62e505be6e880aU, 0xbe9762ca3ec2f040U,
  0xbda2b318bd1b8e06U, 0xbee44b96bd20e554U, 0x3e5f85d83e6063aeU, 0x3e4a0ec6bab805bfU,
  0x3eaa8b4fbdad550cU, 0xbea7d84ebd50936aU, 0x3e82ae15beb0e094U, 0x3d88e3063ec1f158U,
  0xbe0e37ea3d96a1a3U, 0x3e22049d3e3be758U, 0x3dfdecfe3d15a94cU, 0x3e9ddc943d917365U,
  0x3e36d39abe13341dU, 0xbe5f3383bd097bceU, 0x3e754992bd1d3143U, 0x3dcf53c83e3a612cU,
  0xbe9630143e32bd39U, 0x3dda550b3e4cae2bU, 0x3e13f310bea68d78U, 0x3e475e413d25e6b2U,
  0x3db9dd99bf1afa17U, 0x3e1085c5bdbabbe0U, 0x3e37034c3c86733fU, 0x3e5e6bcabda23fc2U,
  0xbe61e1133e657de8U, 0xbe3685623e22881eU, 0xbdf119863dcc43f1U, 0x3e34ab56bdb221c1U,
  0xbeec6d5bbd6e57b8U, 0x3e4b8fb3be04c26dU, 0x3e53d9bb3d9a632cU, 0x3e7739ffbceee66cU,
  0xbe14771c3d29d47aU, 0x3e88bda53df5537aU, 0xbdd56642be8f5723U, 0x3c785c673e13bb9cU,
  0x3d08910e3da1c81bU, 0x3de1f3a9be2a7423U, 0xbd1ef3de3e19692cU, 0xbd22db06becd2408U,
  0xbd7ad8dfbdc00128U, 0x3ccadf66be0c6afdU, 0xbe6130c7bc23822aU, 0xbdf592c33a90e7daU,
  0x3ec45d963e046728U, 0x3e36d569bdc8715cU, 0xbe4062cd3d1edbceU, 0xbe23c2483db7470cU,
  0xbe855a493c1775baU, 0xbe57293cbdc20529U, 0xbd0205033db4653fU, 0xbe044002beac6f46U,
  0x3c9f82513e64247cU, 0xbdc3bf81bdc877b3U, 0xbe38f2b5be8516daU, 0x3e4d53d93e2bd0c5U,
  0xbeb8fb5dbe31e338U, 0x3e030e9f3df21a59U, 0xbd4682663d37ceffU, 0x3db4c7a73d395e03U,
  0xbdcf5acebdda892fU, 0x3d3756c7beaa8ec6U, 0xbdccdf35bda74ee0U, 0xbd241d1fbc91a8c8U,
  0xbd4f3007be8754d9U, 0xbe880cd9bc903364U, 0x3cc216ed3d5edc0fU, 0xbeae85b03e6e4910U,
  0xbaa3e8a2bce663dfU, 0x3dc67fe9bc6103dfU, 0xbd3b549fbc51aad1U, 0xbe81aeab3dd8ac2bU,
  0xbd4511123dde6421U, 0xbd3f5757bda9a59bU, 0xbd3b1caa3d327801U, 0xbe575c5bbe9ed281U,
  0x3e534ef9bdfbfb80U, 0xbbe515fbbc69d22eU, 0x3e15f33e3d6faebcU, 0x3df6869e3e19bd55U,
  0xbef56d6bbd8e16c7U, 0xbbf1b83bbe2b9975U, 0x3dccb7193d945763U, 0x3d360701be1052dcU,
  0x3e6ac5023d2ec993U, 0xbe04e4c7be848e74U, 0xbe240f6d3c3b1fe9U, 0xbdf9b58e3e20ccf9U,
  0x3d2b6864beb6be0dU, 0xbe837d80bcc80a56U, 0x3ddbc7cb3dd92ddaU, 0x3d31bae43d6a2056U,
  0xbd5b3249bdd48d6dU, 0xbc2c48cc3d3638f9U, 0xbdcc16eabe6f6ec6U, 0xbe90bb61be2d69ecU,
  0x3e28fac03e66efb0U, 0x3e45696bbdf1bfa5U, 0xbe36e5cfbe3bae25U, 0xbe658ae1bd3e6b6aU,
  0x3db46367be3ed5afU, 0xbd582e0d3e051345U, 0xbc0763443e6087ecU, 0x3e2f03a93bec8197U,
  0xbee92e33be2dd6aeU, 0x3e98642e3d95dabcU, 0x3d492745be25f441U, 0x3e3fe78e3da17cc5U,
  0xbe2f73cbbe4ecec2U, 0xbdb8b6febecc3841U, 0x3def26f6bd2a7e7dU, 0xbdc166ffbe7fcfabU,
  0x3cff5c10be23e74fU, 0xbe13e4113e180365U, 0x3e17be09bd107d72U, 0x3e6d0ffc3dcf77d2U,
  0xbd6ad9d9be2b1fe6U, 0xbdfe4eb73d1296c1U, 0x3d4f2c1dbe56b39dU, 0xbe41791f3c20f2e6U,
  0x3e3181b73eab677dU, 0x3e23e5b6be2b5205U, 0xbe711506be096356U, 0xbe5cf7873d2f60f9U,
  0x3e735f6abe8964cbU, 0xbb8697303e2ecb56U, 0x3da853e63e09f70fU, 0x3dbd722a3d25d0d5U,
  0xbbe8d2dfbe9799c1U, 0x3d9f18423e0190d3U, 0x3ccc695e3d4bd466U, 0x3da1a2a1bb3a37a3U,
  0x3a8d6a9abe253158U, 0xbdcffd77be25995cU, 0xbc535a9ebda864faU, 0xbe8697debd9a9701U,
  0x3dc45987bdeded1fU, 0x3df46b57bdbd5e38U, 0x3d1aeeac3dd28d7dU, 0xbe1440593ec29c67U,
  0x3cd8cb7a3d799d07U, 0xbdc3a4883e083f8eU, 0x3af26b153dddc35eU, 0xbeb74ec33d99b5afU,
  0x3c64c8d6bda86096U, 0x3dd01311bc63467cU, 0xbe8733353b061f84U, 0xbea2edc9be1ddb04U,
  0x3e55f423bd5c9b54U, 0x3cb003df3cef31e6U, 0xbdae2b273e73f40bU, 0xbe3ce80d3df5a7f5U,
  0xbe6daba8bcc5292fU, 0x3ddf3f5f3ca09633U, 0x3d262d753d6b9802U, 0x3ddfed4fbe707a9aU,
  0x3e8fb626bd784406U, 0xbd6e350ebece7ffcU, 0xbdff72c7bcc53fa7U, 0xbe6106853cc17175U,
  0x3de8414abe0440ebU, 0xbe05ee993d5ce0aaU, 0x3cd9228c3d904a3aU, 0xbca9d3853c0da32bU,
  0xb94ca7edbe8cc488U, 0xbe8f2f763d04b6d7U, 0xbd19fd81be84c357U, 0xbe9d6628be0b372eU,
  0x3e0bc214bc8d79b8U, 0x3dbee16fbda0433fU, 0xbe1f5c40bda055abU, 0xbebc4c03bc532d27U,
  0x3e362f85bd5e13beU, 0x3c8fdc8f3d54e58bU, 0xbdbb2cce3c1054ffU, 0xbd0ea1923c0e163aU,
  0xbed62150be1667d7U, 0x3dda07f63d504d40U, 0x3d25869cbdac4f14U, 0xbb99dc15be4444a7U,
  0x3e158d5fbd9f5310U, 0x3e365fe1beecb873U, 0x3d8ca3d03c3374f7U, 0xbdd1e624bd8906c1U,
  0x3d6cd751be2424f2U, 0xbe4d18003c669008U, 0x3d5f3f293d8134c4U, 0xbcae1a34bd7527b1U,
  0xbe55e050be4687b6U, 0xbe06eaea3d315ca5U, 0x3d92a28fbe5e0227U, 0xbe726308bb1b2d56U,
  0x3d8e045f3d52a903U, 0xb954cd75bd849221U, 0xbd9e4a86bd3cff35U, 0xbe25e6f3be357590U,
  0x3dbb8f4cbe846682U, 0xbd91bc943dd2348fU, 0xbd4abdb03dacd062U, 0x3dc9b4a43dc485f6U,
  0x3e01ad60be1d33a1U, 0xbca3ffafbd0091f9U, 0xbce805dabdebba56U, 0x3df753e3bdadf45dU,
  0xbcd8169ebc925a36U, 0xbe3a4e9bbdf8cdbcU, 0x3e3ded49be6186b3U, 0x3c800cd4be1a88d7U,
  0xbe1b172fbd13a083U, 0xbd43e0723e2f2643U, 0xbb493b06bd50fa52U, 0xbd339949bd9d487bU,
  0x3d70b4213afe3034U, 0x3d0f303c3d8be8b4U, 0xbdb50fcb3d936e78U, 0x3da660c6bd1c5f78U,
  0x3e9b20bfbdbaa94fU, 0x3d4ae9173e5b277eU, 0x3c7f1f7d3e04d9c1U, 0x3d908c7b3e2f54c1U,
  0xbe5933913e34b32cU, 0xbe9539183e83b3a3U, 0x3e6296fcbea60f53U, 0x3da595debe3373fbU,
  0xbe68b2ce3dbe915aU, 0xbb9a24573e1f5fa1U, 0xbe5e6ca0be212f66U, 0xbd4979cdbe0985e5U,
  0x3dbf381b3e2a6971U, 0x3b7438af3e2882c1U, 0x3c62f6af3b663fefU, 0x3e0eb17e3e0acd2eU,
  0x3cfdc38ebcf486edU, 0xbec767033d2a77feU, 0xbe3d5a04be32f0a3U, 0x3e404818bdaf4e32U,
  0xbe448ff9bdb69b91U, 0x3baea354be693237U, 0xbc8e7c7f3e37ed2fU, 0xbcbbcb1bbe19b7d1U,
  0xbdd11c9dbdaefc7bU, 0xbcc91df53ca8b9a7U, 0xbe8129c23dd1967eU, 0x3e2879cfbc0899ffU,
  0xbe926a9e3cc2ed3dU, 0xbcde55d33dcbbaebU, 0xbe646b633d61887dU, 0x3e17dc1b3e4ca29aU,
  0xbe592fb63d56f5beU, 0x3e0723083decddd0U, 0xbea1cccc3ddb21ecU, 0x3d2425963d9452ceU,
  0xbe55d7d5bb948d0bU, 0x3c9425653daef36bU, 0x3d1765fdbe3a42acU, 0xbed2ea24be663739U,
  0x3d614ca9beef52dcU, 0xbcb83bad3d8d4f67U, 0x3d8a2156be1b71cfU, 0xbe928214be4adf6fU,
  0xbde2b92bbe176d17U, 0xbd4992bdbf2b2fdaU, 0xbe6bc901bdbc498cU, 0xbdcaa6cfbdcd2eb2U,
  0xbdd23e1bbc55e698U, 0xbdba68423e091289U, 0xbe91e95dbdbcb78aU, 0xbd903a513bfe7cfdU,
  0x3d85fad83cc7f7a4U, 0xbe863979bd8da778U, 0xbda31f17be48d703U, 0x3c959a2ebe2efb40U,
  0x3daabe273e4e09ddU, 0x3e397fe43e4db050U, 0x3ceb90c5bc6df05dU, 0x3dd91a28bc38776eU,
  0x3d2bb9943c2fd57dU, 0xbde0196e3cfacb85U, 0x3d2d0991be66e6c0U, 0xbd0aebef3deb6d4bU,
  0xbd7189f5be53b7e2U, 0xbb883fa8bf00e9e4U, 0xbe5a7a50bdef2204U, 0xbe47f1ebbd1f923cU,
  0xbd77c7c0be42e09dU, 0xbd08cc42be582547U, 0xbd8378bcbe3f763fU, 0xbd500302bdbe451dU,
  0x3e8fd706bea495baU, 0xbb0c050cbe358397U, 0xbddd090e3c17b51aU, 0x3d5cdb8fbdb866d9U,
  0x3cca6c25bedf052aU, 0xbd63e53dbe42f04dU, 0xbd99c269be1fd444U, 0xbcf726d2bd49de7bU,
  0x3d4604fdbe1027e9U, 0x3dc917e93de3b314U, 0x3c1698153e2367a7U, 0xbcd271e63c4d61b4U,
  0xbdfc684a3e034379U, 0x3d18c10b3e41a597U, 0xbd6c0b1fbd743138U, 0xbd23aa003d7f422cU,
  0x3e420a9abdc124baU, 0xbc40d0af3d8fa16dU, 0xbe5abb033d5d7e0bU, 0xbd98e6763d0cad89U,
  0xbd0408e03d238d51U, 0xbd58b609be1937e2U, 0xbeb7e166bd781308U, 0xbc6833c53d8bb5e4U,
  0x3d56d7fcbe87791eU, 0x3e2dd2273e3c44eaU, 0x3a5b4f55be58b81fU, 0x3ddba6d6bda79c3cU,
  0x3d16b1283e53b666U, 0x3daeafea3ebbcb71U, 0x3c04c852bd989624U, 0xbe608a363bb4f112U,
  0xbdc9924ebe8aa0ebU, 0x3e24aada3e2f8780U, 0x3c7f17ae3e3dea66U, 0x3daa96373d74739eU,
  0x3d43737abe43ba2fU, 0xbd8e399abe954520U, 0xbe74aa0abe04ba80U, 0x3e3e73923dc794e5U,
  0xbe7a5e423dbffb47U, 0x3e1a5bafbdabcf4fU, 0x3e267a713db85bc6U, 0xbd3ef287bdbc4e8aU,
  0x3c868155be8f2183U, 0x3db7017cbe1a8027U, 0x3d825fc83e2f7dc0U, 0x3d4fe52f3e13b1ecU,
  0x3d957569bcaf4a39U, 0xbe1d8abf3cd7d94aU, 0xbe00c6b9bbe56fbeU, 0x3d1c53863daf0e0eU,
  0xbdcd83cebd972ce9U, 0x3d99ecdabec976efU, 0xbdfff4463dbadf9dU, 0x3d19a577bdabb045U,
  0x3ea7e9b2bdcd887cU, 0xbe2b28903e98a52eU, 0xbd1125623dd6e061U, 0x3e288bfbbd2bab4dU,
  0xbd0289003eafa4e4U, 0x3d3eb4cdbb4e66ffU, 0x3dddea1dbe4437b5U, 0x3c0eeae9bdba587fU,
  0x3dd8dee63dbbbe80U, 0x3da16af93abd6666U, 0xbe86632b3dffb47eU, 0x3e17eab5be23ab7aU,
  0xbdb874b73e35e11aU, 0xbcd62bcc3db2fc1fU, 0xbe9da001bd5f9736U, 0x3da829ec3e35d7ffU,
  0xbef2bf2d3dd8935eU, 0x3d4e96d0bd382d35U, 0xbe21f0a73e28c6c7U, 0x3db325623e3a37a1U,
  0xbead0483befafeb0U, 0xbdc0b8a23d7ef603U, 0xbdd29f213d8caaeaU, 0xbe86686bbde739b2U,
  0x3e8fa672bd738d8dU, 0xbc94afd1bcfdea1bU, 0xbc743d62be2df9bbU, 0xbe6db42fbdec3017U,
  0xbda028fabe805379U, 0xbe477ae3be501bfeU, 0x3d317019be8ecaeaU, 0xbe4567f33d46edd3U,
  0xbdb4222b3dd9164fU, 0xbda300433d9eb921U, 0xbc9a46cc3e0b3b3bU, 0x3d7c8e093e363f51U,
  0xbee24a0f3da54590U, 0xbe0bb5ff3e9724b1U, 0x3dc73156bdb5ee59U, 0xbdc36a7dbe6dc931U,
  0x3e02c792be619fb1U, 0x3eb4332a3dc90b83U, 0xbe8a300cbe936c07U, 0x3e676c35be8aa17fU,
  0xbe9456d03b92d53dU, 0x3da5c1fbbe919bebU, 0x3dc0ffe5be83ef9fU, 0x3dd8c9103e4a29a0U,
  0xbcb283f93d4368a3U, 0xbdda9611bde151a3U, 0xbd93a7523e206174U, 0xbdb36f183d098563U,
  0xbe75542dbcbd1a58U, 0xbe46ce0ebdf6fb35U, 0x3db7493abe03390fU, 0xbc380c8f3da5590eU,
  0x3ca62d97be4da4bcU, 0xbd439219beda6e2bU, 0xbecd36a3be58afc1U, 0x3d173d2cbe824c62U,
  0xbe813a26bd2e4f44U, 0x3e157f72be9d816aU, 0xbeaab471be096a6bU, 0xbbbeb7d7bdc8756eU,
  0xbdd9cf093eaeb7dbU, 0x3e1214b03d95d363U, 0x3df313a3be3e7bc0U, 0xbde9fe04be264ac0U,
  0x3e832f28bdc1d00dU, 0x3e4a5f123e081a19U, 0xbde9fac0bb837686U, 0x3e0bb1863e65fbdfU,
  0xbd96b41c3e91b77bU, 0xbe2b7555bdc5e55cU, 0x3e4c22bc3cae138bU, 0xbf13b3143e649a76U,
  0x3dc113b33dba1c39U, 0xbe7825853b80d4ddU, 0x3e18f0553db8550eU, 0xbe85745bbde12ddbU,
  0x3dc56260be2dd6deU, 0x3e28300b3e52fb31U, 0x3e349f47be0202beU, 0x3e827d20bee46393U,
  0x3dd5cee53e6b8a59U, 0xbee45f4bbca6404dU, 0x3e7a10ae3aa2503eU, 0x3d898a993dba8807U,
  0xbe8a3e063e9601cdU, 0x3cba93eebbce55a7U, 0xbdc206cfbea11242U, 0xbdc4ef23bd34fe43U,
  0xbdde4174bda9bc64U, 0x3e14ba5bbd0de4eeU, 0x3dbd1722bd98f979U, 0x3e221a273db8547cU,
  0xbde35015bdafff69U, 0xbd9499c33e07761cU, 0x3e6d35aa3da48d24U, 0x3d146fe7bdfea2d9U,
  0xbcae7b6abd896baaU, 0xbe89993fbed90930U, 0xbc469e49be28268cU, 0x3e11ee13be41b5cdU,
  0xbeb08758bcd8116cU, 0x3c15a509bc29c2bcU, 0xbdc5df8ebe8123bbU, 0xbd999953be8dc549U,
  0xbe881685bd84ee75U, 0xbe3aa158bc37ee1fU, 0x3cfa5805bdf79b54U, 0xbdf854993dae90b1U,
  0xbe3282f53cdb2685U, 0x3e908addbdc99b8bU, 0xbe1e989abd061ec2U, 0xbe265c623e506d30U,
  0xbd6dc07abeb2e71cU, 0xbd95ae55bd49b40fU, 0xbe1caba1bdab7871U, 0xbe8c5771be453f00U,
  0xbddbd9e6be036f2cU, 0xbd805c22be80f904U, 0x3de1d3a8bcfd5729U, 0xbedd9f41bea1ca3fU,
  0x3e15e1d5be5770d0U, 0xbea5257cbe450e78U, 0x3e00cc20be2070a8U, 0xbe72c076bddcea94U,
  0xbc7463b7be9de3d8U, 0x3c7790cabc598673U, 0xbc89ebb4be13d01aU, 0x3e06c3fdbe95ab28U,
  0xbe183e5ebcda22e8U, 0xbe5f602b3e1d164bU, 0x3be89a3bbdd7faaaU, 0xbe3c047ebef2109aU,
  0xbe897393be5e9b47U, 0x3df632c53cf7937fU, 0x3d871597bd931ba9U, 0xbd9ece5fbe3906aaU,
  0xbd9fdbc4be7f26c7U, 0xbc3743423d74b666U, 0xbd91a6ddbea7829dU, 0xbde0ca5a3bcda00dU,
  0xbe2fe964be8b6fabU, 0x3e01b4b9bcb2a746U, 0x3cd8ac4dbe19a5c3U, 0x3e16861fbec210beU,
  0x3d7cece83d5d0d8aU, 0x3e5790283e4f8d9cU, 0x3d8b07103e7c57ceU, 0xbdd93c9bbc8651f3U,
  0xbdc20fccbd18eeedU, 0x3ec3865b3e852670U, 0x3e2d0f693dba9bacU, 0xbd89ad573e81eb91U,
  0x3cfad023be1da7c8U, 0x3e6d131c3db1a6afU, 0x3d98b58e3d91669bU, 0x3df7af613e9b8b42U,
  0x3d00f6d4be816e71U, 0xbe30b9173dcc7d5bU, 0xbe913105bb87537aU, 0x3ce1dbd53df6d3ecU,
  0xbea9f38e3dbb29c6U, 0xbd68ae7fbd8d8867U, 0x3d9c56dcbe63c452U, 0x3d79e6c3bdde8b7fU,
  0x3c64356abc792741U, 0x3e70130fbd1774beU, 0xbe04f0433df1ac7cU, 0x3cd03db0bd5783a0U,
  0xbafa7ca73db9b980U, 0xbdb58a103db248f3U, 0xbd60e6f5be0faa9fU, 0xbcc233bf3e41c599U,
  0xbd03115bbd365025U, 0xbd07b9a1bd9a4accU, 0xbe298264bdc3b746U, 0x3ca4daa9be0b76c2U,
  0x3cab4cadbe430cd8U, 0xbd4f8706bdb533f8U, 0x3e074e8fbd873b27U, 0x3ca9a5a9be7525cbU,
  0x3d3abf38be4f664dU, 0xbc723ecf3e11ddb6U, 0x3da3af693dc36b6dU, 0x3d6ce297be2e5739U,
  0x3d4a0797be2989f2U, 0x3d17b093be056117U, 0xbe4f8a92bc5d6857U, 0x3bdd901b3c6e32a5U,
  0xbdc9a7ac3cb40d26U, 0x3ea4cbf6bda76cb1U, 0xbd546bc4be62af97U, 0x3ddbb2cb3d1bdd42U,
  0xbc05682cbe0d9806U, 0xbcd37b843df46df2U, 0x3e0b98ac3e0f2fe8U, 0x3c1d24953ccf0d19U,
  0xbe8f963cbd7530f9U, 0xbe2d18163d400145U, 0x3e484736be376888U, 0x3cfc11fb3c960e57U,
  0x3d8a0b7bbe1b1258U, 0x3d98d1f9be838835U, 0x3ddf125abcc15281U, 0x3df2cc44bb033931U,
  0xbe8a4943be5575dcU, 0x3d62d4323e0cd2b5U, 0xbe2ee7023e0bede0U, 0xbdcdad4cbd52d3f8U,
  0xbbe5d67d3dc6a014U, 0xbdd690c53d3e2ad6U, 0x3d3b86e4be47dfe0U, 0xbd375568be413067U,
  0x3cbc31423d9a58d5U, 0x3e4523673df49b54U, 0x3d0d655d3db43713U, 0xbd0d30e03d0bfc03U,
  0x3d6ae09bbd72bf5cU, 0x3da54f8abe927ea5U, 0xbeb8f0973de3133dU, 0x3e0d4b193df687daU,
  0xbdc452dabdccc629U, 0xbdc247e9beaced82U, 0x3de9454abea6f349U, 0xbdea24e3be8f93d3U,
  0xbd04dd89be82be7aU, 0x3e5085e5be0dbde5U, 0xbe0fc26b3d85119eU, 0xbdcd964fbb32ef22U,
  0x3dbc0b75be3da707U, 0xbd800bf8be3af238U, 0xbdccdf5d3d1c94c5U, 0xbc2a102dbcba6c67U,
  0x3df44699be10d1d4U, 0x3dc8c50cbe96e0f6U, 0xbe54f5733d6ddf6fU, 0x3dde4bd5bd80f2eeU,
  0xbe060eae3e259227U, 0x3e2ebec9bb9bb985U, 0x3d468e803d87a1baU, 0x3df70f453db34bcfU,
  0xbd0e58843d804ce4U, 0x3da712603d9ddbbaU, 0x3cb79c14bcaf0708U, 0x3d2e9b6a3d4f503fU,
  0x3e162d25bd59c315U, 0xbe08cc483b73246eU, 0x3e0a08f1bdbda8e6U, 0xbdfb364dbdf08345U,
  0xbe02d69d3dd79826U, 0x3ccc3cf3bd841645U, 0x3da7b1c0be11734cU, 0xbe225425bd5f582fU,
  0xbd78074abec33806U, 0x3e603da83e3ededeU, 0xbe8aa5ffbcd80f7cU, 0x3dc7e176bcb78401U,
  0x3b4a60ee3e838235U, 0xbd4f47763dd1c98cU, 0x3e541bdabea9a299U, 0x3d898ca1bc4030adU,
  0x3dd0fccabdb98324U, 0x3de3f8f73e8088f2U, 0x3e3505c1bb3d1a27U, 0x3c9200fd3b97e8f9U,
  0x3cd93356be42703bU, 0x3db8b6b4be3cb017U, 0xbe8506b93d508e1dU, 0x3e4551a83e08f6a3U,
  0xbd9d6c7cbd5e8855U, 0x3d8fe40fbeac1d9aU, 0x3dbb8018bdbb104dU, 0x3deb0e7e3cd6753fU,
  0x3caa87c8be7e25f7U, 0x3e836b88bd3f5734U, 0xbd9572803e84d60dU, 0x3da7ec983e3156a9U,
  0xbdebfcf7bc9a6364U, 0x3ce39d5d3dbf8ecbU, 0x3b8a09d03d46819eU, 0x3d92397b3d5b02d6U,
  0xbd729a93be943dd2U, 0x3de58eadbe1553b1U, 0xbe1cedaa3de8b0edU, 0x3e1980103e25fb09U,
  0xbd4025f03df9c670U, 0x3e767f2ebdf96708U, 0x3dbb410cbd3ea1d4U, 0x3e269e2b3e29dadaU,
  0xbd9d6047bdc74877U, 0x3e4d69043d85c7bdU, 0x3e08f6b83da15768U, 0x3e979cca3e32470eU,
  0x3e3d6fd03defbcadU, 0x3b1d3ed03c622be1U, 0x3dfac9ed3e121121U, 0xbc752e46bd0b0e07U,
  0x3d059cda3cbbfbc2U, 0x3ddfaf0d3cfc51c6U, 0xbc50ca6cbd1696c9U, 0xbb9500993ddbec1fU,
  0xbd64fcc13d33d93aU, 0xbe93de633d39a6c6U, 0x3e7c942a3cd06c0dU, 0xbe903c5ebd052a3dU,
  0x3e1033f3bdbf4668U, 0x3cec581cbe22cbd5U, 0xbe0f45c73e052f42U, 0x3ce37aef3d836eecU,
  0xbd1bd8403e93594aU, 0xbeb64b28be0be628U, 0xbe8fe0febeac99c3U, 0xbe5157a1be640975U,
  0xbedc21f83e366f7dU, 0xbe9696bf3e563a2bU, 0x3c8a2dfbbe83a488U, 0xbec4f48cbe80a007U,
  0xbe8f35d1be951ce0U, 0xbeb0f6913dc4a952U, 0xbd9380d33c319cc6U, 0x3d6347793d02b5d0U,
  0x3d922fb33d9bd4d0U, 0x3c851079be9ec130U, 0x3e341ff2bd885c00U, 0x3d3577f03d103fa2U,
  0xbd0d64c93dfc1e04U, 0x3e177d913e501a29U, 0xbe4dba783da8fd6fU, 0x3bb45cadb9d15649U,
  0x3d0d8c8ebdff93a7U, 0x3c31c476be15c7baU, 0xbe039d2c3c1055a8U, 0x3dafe9893e1e8350U,
  0xbde70561be214728U, 0xbe8882273dcaa743U, 0x3ddac29a3d60b692U, 0xbeb5a4d3bc2529e4U,
  0x3ca8257ebdf88f97U, 0xbe2acd19beca3b9aU, 0xbd6360c2bdeca228U, 0x3e5470413d0577dbU,
  0x3d09f9783d6f2626U, 0xbe544cefbe3a2a58U, 0xbe7b52e53dda2a85U, 0xbe11f619be705a9bU,
  0xbe194a4c3d1b5981U, 0xbdee94d8bd8d29a7U, 0xbd308e22bc7db0a9U, 0xbe4f2696be611199U,
  0xbee2eca53d3751ffU, 0x3d522901be848e5cU, 0x3d34365fbe2ee747U, 0xbde0f2cdb98f9a44U,
  0x3c712c81be854fc1U, 0x3e9a022c3d426604U, 0xbdb6a0e23e640cceU, 0x3d146ad33e1b498eU,
  0x3de7b867bc2085b0U, 0xbe9945a4bdd59d7cU, 0x3e202e5dbc66b77cU, 0xbdcc9a443e747a33U,
  0xbb846280be7b8624U, 0xbe278810bd5cfac6U, 0x3e62d773bacf780bU, 0xbe0c6929bd9aed9bU,
  0xbe54bfe3bedc1c1dU, 0x3db1f7fe3d6a7461U, 0xbe36328bbe887b03U, 0x3e807443be50987bU,
  0xbe09f07a3d06d8d8U, 0xbe181f5cbd8da3beU, 0xbd63615ebdfec336U, 0xbe029d98be8acc75U,
  0xbe49c2d2be7a5303U, 0x3e58ade83e6adddcU, 0x3e0fb0e53e553522U, 0x3caefc8e3dac2bceU,
  0x3e51a115bec95ed6U, 0x3e2c0531bf04692eU, 0xbca2bf5d3d652fdbU, 0x3e17f1fc3e11e19aU,
  0xbd9dbecfbe89cb83U, 0xbe567dcebe1fbf35U, 0x3da73af3bea30be1U, 0xbd65318fbeda3b0dU,
  0xbe26fd38be164201U, 0x3e507213be933740U, 0xbe6e97733efc1becU, 0xbe6065a9bd2e4bbdU,
  0x3e71381fbe332136U, 0x3d80ae79bd06f7ccU, 0xbd0d82b43e08909eU, 0xbc0298843e98bb04U,
  0x3e4be3c2bd421ba0U, 0x3ebc870ebd121c27U, 0xbdfb8dfe3e12a80dU, 0x3dc821103dbfc0d8U,
  0xbec7f0edbccc28ecU, 0x3e96b574bd973325U, 0xbd97e9d23e10d47cU, 0xbe3a00db3da3f43dU,
  0x3e178518be84f192U, 0x3ce51335bd18247fU, 0xbe654ed0bdf4b4b3U, 0xbdd26ae03db733cdU,
  0xbd51b94d3dd5296bU, 0xbddaa3f1be5ab90cU, 0x3e3cdcecbda491aaU, 0xbe8860113d287a6eU,
  0x3dff2469bdee610aU, 0xbe36d52cbe9a92fdU, 0x3e1d8e083dba82b4U, 0xbdf94e0bbeb7f7b7U,
  0x3c973b2bbbfda554U, 0x3d3e048d3e5f71f9U, 0xbde135023e56fd33U, 0xbe379e21be43057bU,
  0xbdc11eb83d90e61aU, 0x3e4c22143e96dc7dU, 0xbcb00da4be2418e6U, 0xbe01adcebe5f6b06U,
  0xbd8ed180bec655f0U, 0xbcb65927be05d680U, 0x3cabee26be0cb111U, 0x3cdfad58bed3e129U,
  0xbe6670f53d8833b7U, 0xbd0284d3be8fe03eU, 0xbe3108b5bea8c969U, 0xbb4df918be12cfd4U,
  0x3e0d3eabbc10b6ebU, 0x3d8819ad3c1c6e2dU, 0xbdff1bffbe88e9d8U, 0x3e276939bdb15232U,
  0x3e1cc07c3e96df1fU, 0x3e2c67ae3e831816U, 0x3e332ff8bbb6b238U, 0x3d1fd9d3bc19aa7aU,
  0xbe1f451f3e0f1cb0U, 0x3e78fb0b3e0576e3U, 0x3d569d14bd62659aU, 0x3d5817963ddf47f8U,
  0x3d1d9646be073b6fU, 0x3e9989523d70563fU, 0xbcc6466a3e2ea949U, 0x3e31efbd3e1821ecU,
  0xbd9a1846be2148b6U, 0xbd7e8d28be199d59U, 0xbe18125cbe49b33aU, 0x3de29b75be3bd1f6U,
  0x3ddc37afbe37a5c5U, 0xbd7c3193bc97820cU, 0x3cf57ce93d761be3U, 0x3dea9adbbe1960aaU,
  0xbd89a347bbde8ae0U, 0xbdfac9ba3e372ba3U, 0xbdf37d7cbd1bb350U, 0x3e14c5963e26b2aeU,
  0xbccca6abbde2b976U, 0x3d28d10d3e1b1022U, 0xbd4ae5353e3c359dU, 0xbcb42bb6bae012cbU,
  0xbc3340ef3c926631U, 0x3e3f59d5bdcf3411U, 0xbd93eb6ebe5ca6a7U, 0xbd32eb00bdc007bfU,
  0xbaddbcf1bde229acU, 0x3e2aeb5abbbd86fdU, 0x3e4e8b643da81741U, 0xbc9f11e2bd83d2e4U,
  0x3d8c22adbd2ee7faU, 0xbc05b3653d7af83eU, 0x3d8a38313d3a4c52U, 0xbdc291743e039e04U,
  0x3de3a942bc100182U, 0xbd0b18bebd292526U, 0xbca8c7aa3d94ee4dU, 0xbda20105bd692a48U,
  0xbe8d87b93d8cdf05U, 0x3dee84c8be934e49U, 0xbde3b416be774c39U, 0xbe56d844bde9d751U,
  0xbcb71603be37663fU, 0xbd15cba63e2e6719U, 0x3d8cc66e3d017a80U, 0xbdb91a6dbd60638bU,
  0x3e5c4dc9be079dbfU, 0x3ca15fcf3de26e54U, 0x3e0b5300be80ee72U, 0xbe90fc88bcb79d97U,
  0xbe388a6bbe7213a6U, 0xbe88e8b4be65e2dbU, 0x3e58532dbe092117U, 0xbe16d467be572b14U,
  0xbe4d488fbd9f2edfU, 0x3ad5daa1be2d13b3U, 0xbe2cfaf8bdf0efa6U, 0x3dc5795bbe395a75U,
  0x38922db4bea253ebU, 0xbe5ec5a1bd472f7eU, 0x3c2b164ebddf7c3fU, 0xbe0135a9be4c31b1U,
  0xbe245c84bda3df0eU, 0xbe05b21b3dd0aa14U, 0x3dcb3049be7650d4U, 0xbec5643d3d9cc917U,
  0x3e4a78bebe6d8274U, 0xbe28e127be8824bdU, 0xbe7100e73d0d01c3U, 0x3c3a4776bd892cc5U,
  0xbe1de34c3cf0245bU, 0x3dc04703bea37276U, 0x3c984153be9d8182U, 0x3e15e49dbdb77784U,
  0x3e914f31be89c77eU, 0x3dbf2f883e47e8bfU, 0x3e4083603d8e70e7U, 0x3e183f833d360826U,
  0xbde1f4563bb73c41U, 0xbe68886e3e90ab3bU, 0x3e356cdd3df553edU, 0xbeced1ce3d7f1a77U,
  0x3e2e5b47bece5900U, 0x3c519c35be484823U, 0xbd9fce373e7b8daeU, 0x3dd3ac103d83234bU,
  0xbb92fc01bb8db740U, 0xbe2c68e6bd209808U, 0xbd5ac814be986e2aU, 0xbb0afa5dbdacfe48U,
  0x3e041a78bdb9f889U, 0x3c5f989c3daf2b9cU, 0x3e2927d03daa0513U, 0xbbc8799f3d53f15dU,
  0xbe1266293e10f1cdU, 0xbdc462173e61a9acU, 0xbc21483abd8b1842U, 0xbde3dfd63e223b49U,
  0xbc87e46bbe245c08U, 0xbd1ec714bd5d92c2U, 0xbc9fe5a03cb14c9eU, 0x3e0d9d0e3e11a990U,
  0xbe369ffa3d1ddef6U, 0xbe08c857bdde9caaU, 0xbce2b94abbf18ea4U, 0xbe1aad59bd10d081U,
  0xbe9933dfbe709cf8U, 0x3cf6e8b9bd29ff10U, 0xbe632013bdd053ffU, 0x3c9ae279bc200004U,
  0xbc2547bebd5258d4U, 0xbe2cba87be08910fU, 0xbe7b16e6be213156U, 0xbeb16d5cbe3d58e1U,
  0xbf0538d6be031681U, 0xbe581ab1beafcb92U, 0xbe1c33f2be156b5aU, 0xbf0b9533be98a4f3U,
  0xbdb2e3e73daf402aU, 0x3d8df4c5bc85a8c4U, 0x3e212a773e392615U, 0x3b560b1c3cfcc9d7U,
  0x3e162012bd9dd0f0U, 0x3dc725b6bd4f9c86U, 0xbe01ebea3de030bdU, 0x3dc95a393c7eab19U,
  0xbda74e32bd01e037U, 0xbe419165bd30a9dbU, 0x3d95ea3fbca626b9U, 0xbbf03864bc19e11eU,
  0x3be0e7633cea5fdfU, 0xbe3d9bcbbdd4d3a1U, 0xbdb7be1b3e13e7efU, 0xb94061ac3a878813U,
  0x3d7e9f5dbe546490U, 0xbd3ccb3b3e06c6e5U, 0xbd2c172abe41c3f8U, 0x3dd3e493be570a88U,
  0xbc948bda3d6eb1c7U, 0x3ba9e274bdc70f42U, 0xbceaf4a53d073b56U, 0xbbfc83cdbcbcaedeU,
  0x3dfc08ba3e131177U, 0x3e4a80c83d2e0c56U, 0xbdc469e53c455894U, 0x3e6fa9503ddb31a2U,
  0x3d1a4355bdb95f12U, 0x3dcf1cc03e2d7a1cU, 0x3d7cce963d8da77fU, 0xbacc06403d9ff5b7U,
  0x3c4641f93d41f99cU, 0xbe528acc3d050fecU, 0xbe8db336bd93f026U, 0xbe112d11be9d6d80U,
  0x3ded64a2bd66310fU, 0xba836cc73d46a842U, 0xbe8565a23dcf93b9U, 0xbd19c29abe18b913U,
  0x3dddab20bcce6d10U, 0xbe4ebf4fbe0d729fU, 0xbdc10e84bd35b065U, 0x3c819d2abdae7a49U,
  0xbdc30ad23e31b64fU, 0xbdc91b753dbf3ce2U, 0xbe1f3392bd2a9a47U, 0xbe7c4778be95b591U,
  0xbe3560fdbd844021U, 0xbe06ce403d43aa6aU, 0xbe4707e8bdadadceU, 0x3d6a23cabc8f4bccU,
  0xbd601664bc831a71U, 0xbd82b3c53d826685U, 0xbd6e6986be3c6cbaU, 0xbe5216f0be8f5da1U,
  0xbdc7cf1cbe642088U, 0x3da81702bde01ccbU, 0xbe3ea862bc1f2ed9U, 0xbd0b49d0be0d7686U,
  0xbd5b96a23d38c652U, 0x3d83327eb997330aU, 0x3d5e44dfbd659a77U, 0xbd8a3d1fbd3de101U,
  0x3d2b36543def294dU, 0xbe788b28bd9ba40cU, 0x3e138699bd06461fU, 0xbe1a16873c9124a2U,
  0xbe18e8a63da5ec8eU, 0x3cf32670bd3bc1adU, 0xbdee5f163e088af3U, 0xbe3e50e8bdd9d5daU,
  0xbe0a5a8cbe1296a1U, 0x3e892828bea37ddaU, 0xbedcc65f3d301d5eU, 0xbeb288e3bdac3d43U,
  0xbd79bdc23d21e1e0U, 0x3d8367c0bea6038eU, 0xbd3d0cd23d3a6917U, 0xbdcf284c3d960e0aU,
  0xbc1b3cf8bd83f701U, 0xbc7e63983e85abb8U, 0x3d453d053d9c342cU, 0x3c7c18213d61ee01U,
  0x3e9c61b33da1741bU, 0x3e36596cbdc4b492U, 0xbda0c6fe3d042e46U, 0x3d476f863e18e457U,
  0x3d6bf0883dabdc86U, 0xbdb4eafa3e19c616U, 0x3d9aaf70bdd4fec4U, 0x3d36a1303e4e7990U,
  0x3e2a6b29bd6683ccU, 0x3ab13eb33d9bca81U, 0xbdeea43c3c4ec228U, 0xbd37d71d3de282c5U,
  0x3e05f975be4b9f9cU, 0x3c6b66e73e1fee82U, 0xbd6220c03e0d4a54U, 0x3e98d5e0be6146bcU,
  0x3e12f2753e4b9bddU, 0xbe6154edbdf78497U, 0x3e195306be58a95dU, 0x3cd13dd0bc8332e5U,
  0xbdeac01b3df4dbb2U, 0x3b78ca6f3c1ed70aU, 0x3b6dfdf43d1728d8U, 0x3e219265bb9a451aU,
  0x3d745df6bbe6da92U, 0x3e93517a3dab464cU, 0xbd0a0aefbd0a843eU, 0x3e3900193e8ac1d5U,
  0x3e1b3f31be4f3205U, 0x3e62d1ec3e9a9050U, 0xbda08965be1d77edU, 0x3e3aee23be6f01b0U,
  0x3e296be73e3dc95fU, 0xbea7ec38bdf6252fU, 0x3dd2b48bbe93c960U, 0x3df9d5a9bd259906U,
  0xbec094783e88a469U, 0x3d45a0be3d4e12bcU, 0x3da17850bc8b486cU, 0x3d82b855bcf95d78U,
  0x3cad2cdfbc845136U, 0xbe1d8bab3e46294aU, 0x3e0d5501bd83ca20U, 0x3e60d4b13ed9019dU,
  0xbe2679033ea24cb6U, 0x3e7b6c10be8f5b2cU, 0xbd29efca3d206715U, 0xbe855cb83e9e8331U,
  0xbdaafd57bdec018bU, 0x3e7bdaca3e31ce59U, 0xbe501371be22bbe7U, 0xbe8d8f8d3daf5e15U,
  0x3e71d9d73c699dd2U, 0x3a3861adbe9a1817U, 0x3dca591a3e378494U, 0xbe3cbd94bec4d551U,
  0xbe93271fbe2b62efU, 0x3d51f9b7be64a6e6U, 0x3e28aa51be843704U, 0xbe6c70dcbe782fb8U,
  0xbe2f52e33e217c38U, 0x3e405c93be7321ebU, 0x3d30254e3e6b22f4U, 0x3d752f303e543196U,
  0xbe9a3353bd7388f6U, 0x3d5779563c2423a4U, 0xbd32fd62bd55e7adU, 0xbe948e723bafc5ceU,
  0x3e4178c7bdd9d618U, 0x3cff57e6be5def0cU, 0xbc1868253dd0c7e4U, 0x3db49193beba0640U,
  0xbe65e943be022208U, 0x3df0f77dbebfd5cbU, 0x3e076071be8266a7U, 0xbd7daf23bdf67791U,
  0x3c92cc7f3dae0829U, 0xbe64b298bc88237aU, 0x3e19f76f3e3abad6U, 0xbdcb6ba43d81a33aU,
  0xbf0674573dea348bU, 0x3d4a3d45bca6b265U, 0x3d25b7b13d8d35d9U, 0xbe4a0bb53d8987b5U,
  0xbd9087e2be3276b5U, 0xbcde294abea089beU, 0xbe1fb17cbc6d8eb6U, 0xbde6947abea48c17U,
  0xbec0e5493daacc14U, 0x3dea4126be9017c6U, 0xbdb5d09bbdef7a70U, 0xbdf254efbe15bc3aU,
  0x3c28e6343e2e9cc9U, 0xbe511e0abdd5dffcU, 0x3e15af243e3a1db8U, 0xbd9f1a2fbc8644f3U,
  0xbf3bd40b3d7c28a1U, 0xbd2fc9a3bde95de1U, 0xbe2a40533bfbc5e7U, 0xbe61f4d13e0a084dU,
  0x3eb35b39be9fbe7aU, 0x3e055019bece2274U, 0xbec5e7d9bdf6626eU, 0x3dbe9227be4d2ffbU,
  0xbe91b50e3e6fa10fU, 0x3e2ceba2bd25a9daU, 0xbe98e195be6beadbU, 0xbca1f59dbda143e1U,
  0x3b0c2846bd4e363aU, 0xbe1e9056bd2fe643U, 0xbdb3ef183def847dU, 0xbe8c0908be3b93c9U,
  0xbe6152083d9f9ed1U, 0x3d141533be8751ccU, 0xbe73b390bda4cdf9U, 0xbd79bbffbd84ac49U,
  0x3ef63052be73564cU, 0x3cb26a47bebb4794U, 0xbe8d3d2fbdc70d93U, 0x3d73690cbe9d55bfU,
  0xbee8ae683c843c14U, 0xbe0b1a3b3cbb3a66U, 0xbd0cd90abf0da0c5U, 0xbea074aabe4da165U,
  0xbdc3821abe45c1ebU, 0xbde575fbbe4634e5U, 0xbdbd3d73bdf161edU, 0x3dbdd634be5172d6U,
  0xbe0e36a13d55b791U, 0xbdf2f7b63da6ef82U, 0xbdf9be42bdc0cb4cU, 0xbe21d0dabe241e76U,
  0x3e3d8e42be7051c5U, 0x3e4165febd9b1361U, 0xbc9ba3d03d1bdf01U, 0x3e28e25dbea4e845U,
  0xbe51cfc3bdafe6dbU, 0x3d66a147be057bb0U, 0x3dfedabcbf06cfa2U, 0xbcbfa6613e03b721U,
  0x3d4a17b13ce91d72U, 0x3b9cca793d1cf8e8U, 0x3e9564ca3c7de881U, 0xbd98dcf0bcb8e857U,
  0x3eaf4e93bcc87d33U, 0xbcb10bb4bcf1f798U, 0xbcfab2a23eb6da6aU, 0x3e8683493e827d31U,
  0xbef53fe53b179633U, 0xbd3f25b7bca72d7bU, 0x3dd5c0c3bdb54eeaU, 0xbd2fcfa13e73937eU,
  0x3ddec59f3e15d4c6U, 0xbe094b55bdb61627U, 0x3d553f843e2eb519U, 0xbd5ea7413d7934e3U,
  0xbd8609d03dc1d6baU, 0xbddb9a93bda4188aU, 0x3dc9fa623d2e2e93U, 0xbd414203be848389U,
  0x3e840fdcbd9c1b7bU, 0x3daf4ab9bd7b90aaU, 0x3da3b4bb3e4b6605U, 0x3e0ddfcd3e861f33U,
  0xbe374e89bae9a5bbU, 0xbded2cae3d2c2986U, 0xbd90c7343d20b17cU, 0x3d4b9e823e658e90U,
  0x3dbd6b1ebb923d04U, 0xbd686457bcf1998aU, 0xbdffd8c53e1d6049U, 0x3d16e6a2bd8d73b0U,
  0xbf0039f03d0355baU, 0xbd935f693d9e4979U, 0xbb39125ebd387247U, 0xbdd37abcbeab9bf6U,
  0xbd0d6e56be496c6eU, 0x3e2bb9a3bd8b9b02U, 0xbd8fd7ec3e1c63f4U, 0x3d035b6e3de2d69fU,
  0x3d99ca5ebd628d23U, 0x3d49a47cbd51d86bU, 0xbd8fb3f83e1fda46U, 0x3e44f2ef3e093e20U,
  0x3c21bbc6bda599d3U, 0x3eb5a6e9be3cffb2U, 0xbde40777be106242U, 0x3db8eda53cf69be1U,
  0x3d39181cbe3099e2U, 0x3c0900d5bd8425daU, 0xbdb3a743be4f35c0U, 0x3e8d04f23b9c36a3U,
  0xbc86e9c2be8114b6U, 0xbe684f42be0b712dU, 0x3e82e05a3def5ddcU, 0xbe240860bee60dedU,
  0xbe885c3abe2d9c6fU, 0x3b8f07f93e95e0e3U, 0x3d4a5173be42764aU, 0x3bb1d5adbe4145abU,
  0x3e2a74f7bdbd66c6U, 0xbe2cc0b13e227f6dU, 0xbd148b053dba34d4U, 0x3dc540a03da9bb31U,
  0xbc87ef72bd948c17U, 0x3da1714ebc7dedf4U, 0xbe0061bdbcb51b0cU, 0x3d9a1b8b3d86d2f3U,
  0xbc30481cbe4ff864U, 0xbec787b7be05e173U, 0x3d58584bbe59df5bU, 0xbd991271be9cc451U,
  0xbdc02684bdc5730cU, 0xbe0888ed3e1f91a6U, 0x3d2e0c95be6ed3dbU, 0xbd560cbbbe1d8a60U,
  0xbc39aafbbda583cbU, 0xbe6b95f53e294f09U, 0x3e0bd4d7bda97c02U, 0xbe20558cbe15a772U,
  0x3d69b6e1bcf48192U, 0x3e30399a3e248c43U, 0xbea7b650ba78c24aU, 0x3e607edebe691c66U,
  0xbb9c1852b88edd80U, 0xbe98cf483e1c14aeU, 0xbd5461a0be90ddbaU, 0x3d77f80abe809ce1U,
  0xbdb4cc1d3b581da7U, 0x3df4a3323e045c14U, 0x3de4ef753e450c80U, 0xbd8f12583c242fdcU,
  0x3c338ddcbd56e2a0U, 0xbd975d08bd809212U, 0x3e0b9f063d0e04f1U, 0x3bb058103dabd918U,
  0x3e0583173d58020fU, 0x3da1d5abbd5d5eceU, 0x3ea2c46d3e2840b6U, 0xbea80ad13d58dc9fU,
  0x3bbd0fec3d945069U, 0xbed107ea3d9990d7U, 0xbe768dcebc0b0984U, 0x3e0397083e8eb1aeU,
  0xbe1714dc3d89f287U, 0xbe2a00a7bdf2b990U, 0xbe39b566bec631a5U, 0xbb2c4181be4e1ad5U,
  0xbde32a123e17bc00U, 0x3e5110d3bdaabc28U, 0x3dd496e7bd882e4dU, 0xbdbb8ef1be76654aU,
  0x3e07114dbe984242U, 0xbe5409603c2e6da5U, 0x3e1ef4f5be6b5defU, 0xbd3b8525beb83e82U,
  0xbe8d322c3cbb0332U, 0xbe61b6f3be3059d0U, 0xbddbf75ebe46ecf2U, 0x3e0c7f47bd8820edU,
  0xbe206c253c6f8606U, 0xbd852a2bbe5283dbU, 0xbea44455bca8571bU, 0xbd585b8dbcf37cc0U,
  0x3d0848553e0e2f1cU, 0xbe59c7f63e4be325U, 0x3db9a531bdf0c6abU, 0xbd7abc56bd92ada7U,
  0xbeca6b1e3dac6589U, 0xbe41600cbe8b4c1eU, 0xbeb068f83c8c13daU, 0x3e0247da3dbe1f43U,
  0xbe9041e2bede90eaU, 0xbe0c9b56bae2cea8U, 0xbe735e08be60be8bU, 0x3de94b37bea588deU,
  0x3d9448ee3d43cf58U, 0x3e1735c6bdd13d05U, 0xbe7eb00dbc778c6cU, 0xbdde8535be60517bU,
  0xbdf2241bbe6e6231U, 0xbe8259d13dfd2ddbU, 0x3d6985ddbe80b30eU, 0xbe187835bdefef93U,
  0xbd6ed8353d65cf20U, 0xbd7c9620bdb8ee36U, 0xbe7b2eeebe919ae5U, 0x3e95c993be9ef9baU,
  0x3e6c4eab3e368134U, 0xbec176eabde63f3dU, 0x3e599af33e03a0f9U, 0x3e790f0cbe8b0cb1U,
  0x3df157ab3e96ca9bU, 0x3e88c2803dbde166U, 0x3b01c813bd4df76aU, 0x3d7c12ee3e306f62U,
  0x3b3468493e018630U, 0x3dbf6f033e60ebc5U, 0xbc9f13fabd075283U, 0x3e17ab5f3e8473feU,
  0xbe905ef93d8fd192U, 0xbdc63f71beaa7fd3U, 0x3e526b83be822b99U, 0x3e188232bc9cc802U,
  0x3d2e6968be89c88eU, 0x3e845768be736532U, 0xbce5e8a33e2eec1bU, 0xbe810f5fbc9ee331U,
  0x3e3ab628be86b101U, 0x3ccbb2943e098edbU, 0xbd882b6e3d9463cdU, 0xbcabbbd73e371d49U,
  0x3e498c05bed7daf7U, 0x3d4f4784be741fedU, 0xbc9a8fb13d94b740U, 0x3e2d3f9f3d5e8d55U,
  0xbdd79ec73dbd8c88U, 0x3e07b2adbdc1be79U, 0x3e35aa073d6594fcU, 0xbdca6c7fbcb65ff4U,
  0xbcc9a238beb80b1fU, 0x3e741dab3dfa4a84U, 0xbe089d703cd37d46U, 0x3e07a0443e2a46cdU,
  0x3e83b1873cbe2b4cU, 0xbe9d512bbe2e2488U, 0x3d9c8cd03e11a12cU, 0xbf17a38a3c0e0865U,
  0xbdb32215be1c7666U, 0xbdb34e95bea62764U, 0xbe0cd45bbcde19c6U, 0xbe1f7c32beb928bcU,
  0x3d1ee6b33db09891U, 0x3b7eae88becb3541U, 0xbd51a73dbeb26840U, 0xbd5da43dbe2112c2U,
  0x3d490c01bdc4964eU, 0x3da84caf3db8e91cU, 0x3de6a6f7bcecf144U, 0xbe3e2cc3bcf35ef7U,
  0xbe462582bdb56d9bU, 0xbe288a9bbd4ef2abU, 0x3d11189c3ce4aeacU, 0xbe02fcfebce17c6fU,
  0x3d93deaabe644975U, 0x3e2ec21bbdd18f17U, 0xbce69aec3e9ce509U, 0xbc376340be8380b0U,
  0xbc7679bf3c8cf190U, 0x3dcb8593bda12a65U, 0xbe320711be0657a0U, 0x3c89529abe24dfe2U,
  0x3d923cf3ba327d2fU, 0x3dca1d913dd5067eU, 0x3c815c5cbe4b853fU, 0x3e0a6e9cbd0d1572U,
  0xbe99e701bdf45adbU, 0xbdd141093e0a11b0U, 0x3cb5717abd81b9e3U, 0xbdd7d793bd6d012cU,
  0x3c8a7479bd776a23U, 0xbcc55b10beb79769U, 0xbc3d700abda3dbfaU, 0x3dcd576dbd34044aU,
  0xbddbf1b23e43e5f8U, 0x3e4cd984be0472d6U, 0x3e1965713db0c9f4U, 0xbd2151923de955a6U,
  0x3e051693be260e9fU, 0x3d8a07763dd67f28U, 0xbe7ad18f3d9abc3dU, 0x3dad77f03df2753cU,
  0xbda85e9b3cc3e462U, 0xbe0839b5bed3bcddU, 0x3daec37b3d60d831U, 0xbd95a74f3cbd20c4U,
  0xbce7f546bce31eb1U, 0x3e0c907abc32953aU, 0x3ea5a3083c85a025U, 0xbe3abc73bee936b1U,
  0xbcaf9b223e353930U, 0xbd9541f6be51645aU, 0x3e08eb5b3e400006U, 0xbe5825fe3d8fd31bU,
  0xbdcc057dbdd573efU, 0xbde1fe8abe448797U, 0xbe6888b3be31c104U, 0xbe61e9a03d006fafU,
  0x3e1b2410be4a7835U, 0xbe3da544be9dce9aU, 0xbe800fcdbe66a8adU, 0x3c93b42abebcdec8U,
  0xbec3b32d3e07ff60U, 0xbe0c3cfdbe1812b5U, 0xbd92e7bebf0a8674U, 0xbe91b9c3bea2e9beU,
  0xbe96c9663d326efcU, 0xbe321eb4bd8a80e7U, 0xbc4752723d857277U, 0xbe35f748bc9a175fU,
  0x3cff9babbe72acf0U, 0x3e511bfebc8eb67bU, 0xbd225020bd3f6efbU, 0xbd4f33823e4066d1U,
  0x3e68e29abe0baedeU, 0xbd334e63be214e37U, 0x3d4e4d8f3deabfe0U, 0xbdacc41cbde9a731U,
  0xbeb2101bbdea2501U, 0xbe3b1ed8be793af2U, 0xbe0303c9bee6e48dU, 0xbdd0026abe161e90U,
  0xbedcd3e3bd917c1fU, 0xba2eba19bdd5ab28U, 0xbe195120be80e79eU, 0x3e2d61cfbdeaad54U,
  0x3d7592ccbda96004U, 0x3d74f79a3dda075fU, 0x3c661b9ebe29c4e8U, 0x3d2264a33d17ba12U,
  0x3e3785873e99f7d0U, 0x3e6fd4683e3f6717U, 0x3e0f683d3e9e6384U, 0x3c144da13cc937c3U,
  0xbdaa6529be3261d2U, 0x3ca61a99bd1039c1U, 0x3dd888b0bc5c4ab1U, 0x3df937ce3e70f811U,
  0xbd19af823dc7ed17U, 0xbc69fc95bd547043U, 0x3ed825783da0a3efU, 0xbea39f93bdfadf92U,
  0x3d3e9fbbbd9b461cU, 0x3cf9e1fa3ce0bd14U, 0xbd8692e73e109cbaU, 0x3d9154833e19a840U,
  0xbe049b7a3e13f75cU, 0xbe832793be4d3347U, 0xbc9e3d65bdbe2316U, 0xbdf399d93c359aa3U,
  0xbe0c09f73e93ce4eU, 0xbd0262a53de6a5c5U, 0x3e51f53bbaef0411U, 0xbe7c0704bdb37e68U,
  0xbdf5e5753d989859U, 0xbe0f587ebe157cbdU, 0x3d35b653bd59d3e8U, 0xbe2e2b83be0b5bb5U,
  0xbe13be75bd9f22d5U, 0x3d0383683d79892bU, 0xbdd13fcb3e496c9fU, 0xbcf834703e61bd9aU,
  0x3acef3f0be1ec47fU, 0xbd08b7d0bc2832a8U, 0xbe149a83be074b68U, 0xbd9b444d3db3e0f5U,
  0x3d4e8181bd8d875fU, 0xbe1be163beae8c65U, 0xbe08d62abd8da86dU, 0xbd1e4028bd31bcd0U,
  0xbc855c863cf9bcf5U, 0xbd039eadbc2f0d4fU, 0xbdae468fbc40667dU, 0xbe96a5633dc913d7U,
  0x3cf6e0153e0c82b8U, 0x3de158ca3d8b99d3U, 0xbd8422683e1bc2d7U, 0xbe222b403de7280aU,
  0x3da1ecabbe8db603U, 0x3c8e605abe23e446U, 0xbe2505e13c3be003U, 0xbdfc3ad73d8f4f91U,
  0xbd3abc65bb634facU, 0x3e1b2164beadafb5U, 0xbe6531aebc843b4cU, 0xbdad7e4cbe0ba520U,
  0x3e1d90dfbde751c0U, 0x3e0a5144be061de5U, 0x3bc003e7bea1ebc8U, 0x3d5fe9403dd364a6U,
  0x3dea8e42bd92f035U, 0xbe0cfe34bd2b7468U, 0xbd87b4f4bd24c371U, 0x3d2b1429be17d30aU,
  0x3c7c0f59bd4d3e44U, 0xbdce13f8bdad230cU, 0x3e1364593d6fd9d6U, 0xbd9429d13c772522U,
  0x3dc004d53cc8bc56U, 0xbdd0db0d3db30ec6U, 0x3e39db57bdf27856U, 0xbdd6fd13bb601785U,
  0xbdb950abbe800b8bU, 0x3dfec1143d82bddeU, 0xbd02634cbe72e490U, 0x3e46d696bd827da7U,
  0x3dcfa3b0bdb4c7deU, 0xbee24fa9bd957d86U, 0xbb5933063c38b289U, 0xbd614e7cbdcfe8d0U,
  0xbe48ab66bd36b20eU, 0xbdb823943e992930U, 0x3e4a2730be851dd4U, 0xbde8141b3de8865aU,
  0x3e24f0f1be6f1faeU, 0xbe11f73d3dd54d1fU, 0x3d9f0e0dbe051d98U, 0x3e0b0a753e0816ddU,
  0x3de81b5dbb82473eU, 0x3d955e91bcf4bb6dU, 0x3d7a057fbe6ca8caU, 0xbd3ff877bd8f65c2U,
  0x3e2fa995bd35ddf2U, 0xbe37529e3d499fbcU, 0xbe3c46f03d402486U, 0x3d8e84cbbc63eaf3U,
  0xbecd7a5e3e4a5199U, 0xbdab8becbdc1c201U, 0x3dd63da9be9629deU, 0xbb8804013cd2463cU,
  0xbe1208853d8fedc5U, 0xbe5ecbdf3e270165U, 0x3e0b6d853cdeb8bfU, 0xbe2119b1bc42ff26U,
  0xbe09fbe33e9445f1U, 0xbe60fc29bd1ed8ceU, 0x3ea9172b3dcd9f36U, 0xbe9ffa8e3de39c39U,
  0x3d0b1ef2bd5bbfb7U, 0x3e4c54553d58f06aU, 0xbe48bf063e4fc464U, 0xbcc6ca6b3eaf7fe4U,
  0x3d9d8bc3be17e2d8U, 0xbd9e49abbeed22deU, 0xbe8fa0e3bdd2a967U, 0xbdaf9d153ccb634fU,
  0xbea391b7bb815e7eU, 0xba9d51e6be8ae4d8U, 0xbc41275bbdbafd37U, 0xbc91eb08be5c8a54U,
  0xbd4b7ce6bcc03889U, 0xbe186509bd74695cU, 0x3d1eca12bc2a96d6U, 0xbe4426b93ca0c430U,
  0xbe4f24eabcdb1ef6U, 0x3e4e7ae63c0a71a6U, 0xbe6becea3dccf3deU, 0xbe66bda43ea31d27U,
  0x3e762fc9bec63094U, 0x3e1be7b5be7cedddU, 0xbd1fff2e3e951ae1U, 0x3d8900043d5216caU,
  0xbeaeb2393cfd98b0U, 0x3e423e42be709fc8U, 0xbe9df301bd82153dU, 0xbe5b0609be018b6dU,
  0x3d9e81e1be3b3bebU, 0xbe664ee33e9636caU, 0xbe620c343e85769eU, 0xbe6258373da58e67U,
  0xbecf6b783e1ea1f6U, 0xbe068c62bde3f9b6U, 0xbe9f1c66be510e6cU, 0xbe73c97bbd6d471cU,
  0x3e8313d7be447fc8U, 0x3c8c432fbef268ffU, 0xbf0248e13a490a4dU, 0x3d12a493bef15240U,
  0xbecdd0ee3dfc2d0eU, 0x3d9385acbe476f8cU, 0xbec1d764be67a2d8U, 0xbe21f75d3ca67749U,
  0x3dd1e66dbdacda93U, 0xbe98158abd61905cU, 0x3e0264e0bda0d76aU, 0xbd37278ebdaec315U,
  0x3da594dd3dba6a4eU, 0xbebd936bbe2bf79dU, 0xbd10f4fc3e0595c7U, 0x3da346d8be2beff6U,
  0xbea738783cd93e3cU, 0xbd91c59bbc89bde9U, 0xbe1c685ebe3c5747U, 0xbd9c118f3c840265U,
  0x3d0018b23e3a2217U, 0xbdb5dba53d8c861aU, 0x3bf2aa4fbcf94041U, 0xbc142387bc85fc67U,
  0x3dd27fecbe137694U, 0xbe9044e2beaf9414U, 0x3d96c947bd71744cU, 0xbbb1fa8ebe7c929fU,
  0x3e062677bd8758c7U, 0xbe00919c3dc52559U, 0x3d15409c3dadcdd9U, 0xbd268a11bd0f371dU,
  0xbe76bc49bc493768U, 0xbc788f8a3e1c4cd2U, 0xbee4c2bcbdbc2cb5U, 0x3d3829bb3e87b9a3U,
  0x3b6bd2963d455a6bU, 0xbd8fad373de31904U, 0xbe8c8fa43e894cffU, 0xbc5b3d49bdbc9cceU,
  0x3cf07f50bd0e940fU, 0xbeb56c2e3c8a8d79U, 0xba9b3f8ebd627963U, 0xbe92fa30be86dd19U,
  0xbd8e9295bd029affU, 0x3c0fcfc0be99a3d8U, 0xbe480e97bd37ceaaU, 0xbcaccaf0be1f5b05U,
  0x3dde9672bd1745baU, 0x3cd6e115bd6d1ffcU, 0xbe919ce43dec4b60U, 0x3d447b63bde16465U,
  0xbd9741f53dc4156eU, 0xbde5bea93de7a20cU, 0xbe2ba5f43cf02be9U, 0xbeabe4d9bd1078c0U,
  0xbe0f3637bba76a46U, 0x3cc580f9be90c30aU, 0xbddadef5bea3fc48U, 0x3e077f823cbfc938U,
  0xbcb43747be78b41eU, 0xbe084d1c3dcc03b0U, 0xbd44b87e3da6d44eU, 0xbd3e79b6be827032U,
  0x3e133a61bc927796U, 0x3cacd76c3cec7b80U, 0x3e1c72043e86851bU, 0xbd0dc650bde1e103U,
  0x3d4bd429bebc1835U, 0x3d77d5893df1cfeeU, 0x3e7a5538bae2c558U, 0x3daa19653dd92da1U,
  0xbba2c681be12b577U, 0x3d7b5a1dbe19aa0dU, 0xbc0f5129be9243d9U, 0x3d94094d3dce95ffU,
  0x3e1e1aaebe84d181U, 0xbdb5f83a3d604b64U, 0xbde378373d8b5284U, 0xbcb613c2be5f5e29U,
  0xbe8eb4c03cd50ab2U, 0xbe090dd73d5547dfU, 0x3e4d3583be0b7842U, 0xbda02f753c0f9521U,
  0x3d6f00e8bedfe8d0U, 0xbe835c6ebdc0916eU, 0x3ce13b4dbd54596bU, 0xbdb10d7dbe0002f1U,
  0x3a518ff9bec4bc95U, 0x3e2b8f89bd8c8106U, 0x3d12aa04be29592eU, 0xbbe65f1fbe10943bU,
  0x3deeccc6be4b39d3U, 0x3e71f16a3e0a537bU, 0xbe54b1763e681477U, 0x3c0e0b5e3de3b78eU,
  0x3e0facfbbd93578cU, 0x3d64f7f13e62c396U, 0x3e20ac243d6095c6U, 0xbdad64bb3e324202U,
  0x3df23696be9a95e0U, 0x3e2628adbd3b8f01U, 0x3d40dc823e762e8eU, 0xbdb618bc3de0ecb6U,
  0x3d08f7063d2c83e7U, 0x3e162b403e58a71eU, 0x3e70cef8bdac674dU, 0x3d39129e3ea1405fU,
  0x3e9cd8cfbdc8755bU, 0xbacbacd23e00d941U, 0xbd16617c3dd3bfbfU, 0x3deeea783e125ba0U,
  0xbe4d783a3e60b1f9U, 0xbe0afe64bde076efU, 0x3e372f013c7daa87U, 0xbe4f79b3bc0aeb14U,
  0x3d4ff1763da031e3U, 0x3d169c813d523ba4U, 0x3d7785703ba4916bU, 0xbdbda8c1be0a9737U,
  0x3e1e935d3db64eb7U, 0x3e8c59b13d901c79U, 0x3c926de7be2aa22bU, 0x3df557293e10f474U,
  0x3cbba330bd7b5ee5U, 0xbda8bae33e85b312U, 0x3dc358b8be929c5dU, 0x3dec62d1bd4a696eU,
  0xbe0637ec3de5a5f7U, 0xbd593e9a3d24375eU, 0x3dceaa603e00eac6U, 0x3d578f46be7ac1ecU,
  0xbd9f7f99beb24d5bU, 0x3b76e6913d8a5b57U, 0x3e87bcd2be4c3307U, 0xbd06c370bd2ff47cU,
  0x3cfef12f3af91189U, 0x3dd560aa3d6090f9U, 0xbeffda2fbdf0dbeaU, 0x3e4fc8e13e1b1f98U,
  0x3cec9250bdb7d854U, 0xbe57ded43e5de3f5U, 0x3e927649befe02cfU, 0xbbe86b41be804b6aU,
  0x3e38f057bd5f35eaU, 0x3bf5496c3e1c0846U, 0x3d881dd2bd6b5d06U, 0xbd6ec1f3be54a089U,
  0x3d9094c1be07fdd9U, 0x3dcfb5dbbe8ed840U, 0x3d37a928be0c4e6bU, 0x3e36a1113e1b689dU,
  0xbd0725f63d87c9b4U, 0x3ca4caccbd33afb0U, 0xbee63b1ebda761a7U, 0xbdeffc513db530d0U,
  0xbe66d6ccbdee2de5U, 0xbd60a8d9bde4d3abU, 0xbe870f7cbe161502U, 0xbea0d4b8be5a0139U,
  0x3d57ceb2be3648eeU, 0x3d326d21be19efbbU, 0xbd8f98d63ddad0e3U, 0xbe0544b1be367a0aU,
  0xbc331892bdaf16acU, 0xbd1cf628bdc95ea2U, 0x3de519493d60374eU, 0xbdc8eea63dce537fU,
  0x3e0b06bfbdafe5f2U, 0xbde883ef3d33e38dU, 0xbda9a0783db1927eU, 0xbe09ac20be4efef9U,
  0xbeb16a9a3e03842bU, 0xbd97bf7abe96dd27U, 0xbe58968abe11d6ebU, 0xbe6e3575bd8d2302U,
  0xbd1ea99bbeb8c255U, 0xbd2ee8b3be425688U, 0xbe9711373d722ac7U, 0x3d14a0e6be78b5cfU,
  0x3c98df703de3e405U, 0x3d50020ebe1e7af0U, 0xbe8a9937bd5f9bc7U, 0xbda26143bc250cb2U,
  0xbd933f04be54d413U, 0xbe60d3c1bbf678f5U, 0xbde7ce58be349cbcU, 0x3d0bfc79bf087269U,
  0xbefdf94e3d29f3f6U, 0x3e4b34f13cce8bd9U, 0x3d34a61cbea633bbU, 0xbd61d4e0be8b9364U,
  0x3d46b484be23f4b1U, 0xbd4cfe0a3c3ee464U, 0xbf18c4703d87d553U, 0x3c307127bf1a0bedU,
  0xbef0d8c1bdb879d5U, 0xbd8368a8bd9c75e4U, 0xbe7f1a84beb13409U, 0xbdd14aedbd506eeaU,
  0x3dc83f1abdb3f92eU, 0x3e01c36ebc2d4aefU, 0xbba983373e995f5dU, 0x3c1dce46bc42c2b6U,
  0x3ceb79783e551a08U, 0x3e30962d3ea7485dU, 0xbc3332eabdd942b8U, 0x3d904c793bede512U,
  0x3e359860bcc20d35U, 0x3e23ba65bc998094U, 0xbc19a5793cd0dd2aU, 0x3dfe6c08bd98e441U,
  0x3b5436023e435de9U, 0x3c402b29bb8f6675U, 0xbe592366bd5bbbf4U, 0x3d41706c3dee5f94U,
  0x3e229b913e388e3aU, 0xbd5427873c946a35U, 0x3e1894e93e48a9daU, 0x3d54c23f3d881c92U,
  0xbd86bfbc3e252c18U, 0x3d1fcca33e60b473U, 0x3df66fa33d7b4464U, 0xbca6131b3d434efaU,
  0xbe71540dbb24ebc0U, 0xbc2304a5bd0941cbU, 0xbcc0edc9bdeb6a5bU, 0x3e15035c3cc4e26aU,
  0xbdf26ab33e9318a8U, 0x3e251e1b3d5d7f98U, 0xbc2443e6bc8d147fU, 0x3e89ca093dc174e1U,
  0xbd862d363e293eabU, 0xbe4cfc23bd263a2aU, 0x3e2c3cf03d6cf4f2U, 0xbe7f40ebbde4ff45U,
  0x3bc7c4e2bd554ff1U, 0x3d83d40abd8daee6U, 0xbd16d7383ddaa636U, 0x3dde778d3d96ed22U,
  0xbdad8b633e3a72aaU, 0x3bd56c4ebdf7bc30U, 0xbec13314be965999U, 0xbdb49c77bd9e03ccU,
  0xbe52fb923e6fbaf6U, 0xbe548ee1bb97a279U, 0xbda79e0dbd951122U, 0xbe306867be18da67U,
  0xbeea52e13de8a0c1U, 0x3e294a91beaac847U, 0x3aa703fd3d4b925bU, 0xbb072d703cb994acU,
  0xbea871ebbef18eabU, 0x3d893e303e73e0dcU, 0xbe5238193e560cb8U, 0xbe499b013c62d0cbU,
  0x3e82c506bdf4eb77U, 0xbc78ead9bdd9ed84U, 0xbd8b48c0bc8e0f3dU, 0x3d95e959b6bec35eU,
  0xbdb4eefdbe702dc9U, 0xbd901dc0be951fc1U, 0x3e1a1ae3be3faec0U, 0xbdba26c8bbb65b4cU,
  0xbe4b7160be4a11feU, 0x3dbeadbfbd06884fU, 0x3e3482afbd46d808U, 0x3cbbb04abd0fbbe7U,
  0xbe78fcaf3deba982U, 0xbe50ed403ea9c84eU, 0xbe08c7c43e37a797U, 0xbe067826be42267bU,
  0xbe1d3793be3d1431U, 0x3e98c3613d927613U, 0x3d82d229bd6be56aU, 0xbc8855ee3ce754ecU,
  0x3db2db03bdd8c6acU, 0x3e0eedecbecb6343U, 0x3daec67b3be3a97fU, 0x3e02400b3ccd46eaU,
  0xbc400034be23808fU, 0xbe090bb4bbaa0c83U, 0x3df306e83e722983U, 0xbdacf95ebdab9155U,
  0xbec75e38bd7316a6U, 0xbdc57866beb9a605U, 0xbcf29e383b4e8410U, 0x3d0a69adbd067543U,
  0x3d2d1777be183488U, 0xbcdfdd7ebe382286U, 0xbe889ef2bdf20c31U, 0xbce03c57bd5848f1U,
  0x3ccbe99c3de59c30U, 0x3da2f0c7bd2ebf8cU, 0xbe2c526b3b8b61b0U, 0xbd527096bd752704U,
  0x3e2c0c6e3e30d679U, 0x3e5b33f6bd77f23dU, 0x3e594dc3be14c5e5U, 0x3df4a545bd49fcbbU,
  0x3e3289adba540fbeU, 0x3e94b1d4be18a059U, 0xbe81eeb73da3d696U, 0x3e1057c23e9535b0U,
  0xbd92db68bb9fe80cU, 0xbd0337fcbcdb758fU, 0x3ddc92123e91bfd6U, 0xbd24a05b3e505879U,
  0x3e919a28bd78f972U, 0xbcd1411abdc63d9fU, 0x3ca60a513e42f7c9U, 0x3b74ef69bd9dba98U,
  0xbd26efd1bd814fc5U, 0xbd3540c23dd4e9a8U, 0x3c73db51bdc58ba6U, 0x3b9e7a68bd1b3247U,
  0x3d9bec593c82db77U, 0xbd93185b3dbc3c31U, 0xbd46cb993c290b3eU, 0x3e1c973f3e351006U,
  0x3c0e39c53e26e568U, 0xbd504d87bd80429eU, 0xbcff22993e57cdc0U, 0x3d19b671bd526a52U,
  0xbdd76cc9bd939803U, 0xbe16db17be412c8cU, 0x3bf7a92bbe39a38dU, 0x3e02bdddbd1a3904U,
  0x3dbb7ef2be8983d2U, 0xbeb9a1143e0999aaU, 0xbd248eed3da4c6d0U, 0x3de3a752be08f8e7U,
  0x3de9b34b3ddcacddU, 0x3d5c6b32bef524c2U, 0x3da13ac8bdc432b7U, 0x3e699675bcb50585U,
  0x3d4879fa3dcee14cU, 0x3dbaff913de37dc7U, 0x3cd0d07a3e218f01U, 0x3e0d2f433e4aa3eaU,
  0x3e9a29563e035256U, 0x3d9d8f163e05bddeU, 0xbe0e63883e306f82U, 0x3e42cd1f3e4adf90U,
  0x3e5f15a63de725b9U, 0x3de0d8d13e1c9792U, 0x3e004f223e462c10U, 0xbd9242653d36d7b0U,
  0xbdb9e4fc3e136e1aU, 0xbe9242b73de899a3U, 0xbe0727aa3d1cd3d8U, 0x3dede0e3be204280U,
  0xbe3075133debab1aU, 0xbcf59637bddcbe10U, 0xbdf67c1ebeafc1d9U, 0x3e6a5ef3be7eacbfU,
  0xbe2bb9e43e042e60U, 0xbeadc6a73e1b202bU, 0x3d2a79cfbdc4b69aU, 0xbe32d65dbd680076U,
  0x3d8e90c9be7de64bU, 0x3d032f003e250f3eU, 0xbe5c47163e3bd979U, 0x3d8ba476be9f0298U,
  0xbd1fd1703dd20558U, 0xbe0cac13be0c0eebU, 0xbd1ecd8bbe593b9bU, 0xbd571162beb95d90U,
  0x3bd80b94bea0522cU, 0x3c83d25ebe3ca222U, 0xbd9c849cbe0eb1beU, 0x3e8833a5be22bc44U,
  0xbda454cc3ddc5033U, 0x3c00e96f3ce523beU, 0xbe867a78bd2d2ba1U, 0x3bd6860abd95a436U,
  0xbe028aaabe437f15U, 0x3da827133d114f03U, 0xbe4283e23c55f5d1U, 0x3d640b05bee43d2dU,
  0xbc94ddd8bc9a37daU, 0xbb88bea9ba8f0d3bU, 0x3da27262bc2b931dU, 0xbd7069cbbd9cb4e7U,
  0x3e060fc0be0f2b12U, 0x3e8723a53e6771aeU, 0x3dffc64cbd5a3472U, 0x3e83eb943d25820fU,
  0xbd298f03be8507d5U, 0x3e4b8cf0bdc835feU, 0xbe86a9c03d2c33f0U, 0x3d2d91873e1bdc7bU,
  0xbe8440813d4308c9U, 0xbe2c85b83c29db30U, 0xbdb038ef3e906f0cU, 0xbe24464e3dd8d8afU,
  0xbcc148c1be3b333fU, 0xbe2912dbbdc5c6baU, 0xbe1339ccbe01524bU, 0xbdabd9ecbe1ba711U,
  0x3e696524bd1157ffU, 0xbb4f564dbd1ae1bfU, 0xbe159b8fba70e17dU, 0x3e1330d1bdb4c31fU,
  0xbe1ce7753c53f26aU, 0x3dcbd22ebda54010U, 0xbd17b478bd64d5bfU, 0xbe20d0abbd4cec44U,
  0xbebccd573d6f0dc7U, 0xbe1e344ebe513905U, 0xbe9b41bdbd81b0e2U, 0x3c8abd93be3a0a26U,
  0xbc77be87bd4b5053U, 0x3e858ee23d263d3cU, 0x3d4a7b38bdd8c34aU, 0x3a202fa43d2d2359U,
  0x3e2d808e3d0b3d60U, 0x3e141dec3e56be89U, 0x3dc536a23de2d4f6U, 0xbdd1d99e3d2f2487U,
  0xbd292c0a3d817abcU, 0xbd07bb96bdcc832eU, 0xbb1f67a3be6e3dcbU, 0x3d0785763e110e8aU,
  0xbecb94883de5df1cU, 0xbd9a6f7bbd258f3cU, 0xbed1cf41be8c852dU, 0x3ced0029be004ae3U,
  0x3d2644d9bea5610bU, 0x3e6852b13e3ec859U, 0x3d11734b3dc18062U, 0x3bfa05803cc6847cU,
  0xbe03e73c3e2e8572U, 0x3dbcfa493eadbe8bU, 0x3d0f0cc53e75f388U, 0x3e6083cf3e654c38U,
  0x3d42c1ecbed18108U, 0xbd4b75dd3e7a3682U, 0x3e64668a3d204a74U, 0x3e48cba33e382329U,
  0xbe8de8e63e8474c5U, 0x3e8d6181bd9dc5a0U, 0x3eeb5ae6bc5e9dbcU, 0xbe5063edbe39ac5eU,
  0xbdd57260be8119acU, 0x3e0d3e733e383c3cU, 0xbd4b3d123e730b4fU, 0x3dc41bbb3e9b371cU,
  0xbd1268943de42553U, 0xbe4771dabd0f15f2U, 0x3d93e311be53c1a9U, 0xbd92ca793d2e4a12U,
  0xbe4b7f033dc6245aU, 0x3e08ce7fbe54ff08U, 0x3deb4cbfba790ed7U, 0xbcf96cfebdaaac4bU,
  0xbc8ce37e3d73872aU, 0x3ea1e8cebe79c098U, 0x3e6c60fabe95e609U, 0xbe10f4b1bd4b68e2U,
  0x3d089376bd6fe7c8U, 0x3dd7ec973e272a59U, 0x3e0faeb63ecfa155U, 0xbe035d0b3ddc0e12U,
  0xbe0042a6be0b01f1U, 0x3dd246823d02e4beU, 0x3e58a33abe1442bdU, 0xbe69cde73e027e2fU,
  0x3e44e8b6be2362c2U, 0x3e16e8bcbeebe3cfU, 0xbc72e685bd41666eU, 0x3d978a16bd39e667U,
  0x3e7f709fbe5bc3a1U, 0x3dc001a73e4d09e5U, 0x3e321714bba88d25U, 0xbe21c9763dd41cf1U,
  0x3bd2ef093e27a26dU, 0x3d3f512fbe0932f7U, 0xbdfee09a3db6e06bU, 0xbbcd0232be14f0d0U,
  0xbe7bef35be94eb3aU, 0xbe136f18be83523eU, 0xbe58865ebe0aca7bU, 0x3d01c39abcd82dd9U,
  0x3de2cd273db1ce6cU, 0x3e3eead2bb8db742U, 0xbe3b6bf93e41641fU, 0xbca75943be4b6b37U,
  0x3dacaaa13d48440eU, 0x3d448b0e3d968c5dU, 0xbe0a05a1bd8a2507U, 0x3ddda8b03e80f730U,
  0x3e1c5351bbdc0262U, 0x3c37adf0bd943e3eU, 0x3dbfb1923ba439ecU, 0x3e0edd9cbe09e892U,
  0xbd8f16fd3c7e9f3aU, 0xbe6e13b63d92fdc1U, 0x3dd7a9c4bc4f0111U, 0xbd91d5a33d846a05U,
  0x3da83835bb06b5c4U, 0xbe052cb63be65affU, 0x3d66f45cbc8aeafeU, 0xbd285c13bd285ff9U,
  0x3e730dccbe5060a7U, 0xbd849d163dbf5744U, 0xbbe954aebe8212baU, 0x3e692106bdb9daf3U,
  0x3cdd93433e5d0551U, 0xbe8be7f2be031849U, 0x3de76a81bdc23890U, 0x3a0d4436badfd4ecU,
  0xbe9409b53e04106bU, 0xbc7c499c3e43d642U, 0x3bb2e5bfbe9de7e6U, 0x3e256cdcbd3bb6a2U,
  0xbd30d6e83d0e0c39U, 0xbe0115233e0acb56U, 0xbd8cd5a23d54992cU, 0x3ca57fd7bccc5d71U,
  0xbdd767e1be62fc86U, 0x3db7548dbe8a6a94U, 0xbd6f653ebe93a2e1U, 0x3e46a239be0f8d48U,
  0xbd931454bd9ab415U, 0xbdd49977be605fcfU, 0xbd928c153de452a5U, 0xbda5bf303d2e801aU,
  0x3ddfb71e3d91999bU, 0x3e50cf173e2599f8U, 0xbd1fcc0c3c0d5ec8U, 0x3df7ac1b3e111febU,
  0x3c4d36c9bd25f42eU, 0xbd8142823dcd947cU, 0x3d9ae30c3da8d777U, 0x3c5927ec3e024b64U,
  0x3dc165cbbe627d30U, 0xbea9aa0d3d753d11U, 0xbc64129bbe076cf1U, 0x3e08ef713ddf33c9U,
  0xbe48b7393d38ba29U, 0x3de0e717be5f9bfcU, 0x3ea250cfbbcef782U, 0xbba30d98be37f8b8U,
  0xbdf02af8bec038d3U, 0xbe0dee4e3dc76352U, 0xbe7cf8953d1c0ccaU, 0x3d87d17ebe42c2fcU,
  0x3e1bb0e23d397041U, 0x3e89e339bd3a3c3cU, 0xbee3332f3d5fc9b0U, 0x3e452adc3cac8a29U,
  0xbd9a1e97bd4dfd44U, 0x3d78da4b3d6d3be2U, 0x3dcb6527be685c4aU, 0xbdd0c2b93d8510f4U,
  0x3d4a0d9e3c2ec073U, 0x3e0e4923bbb576e8U, 0xbd8b2b533cd27c36U, 0x3d0fdb47bdfcb14bU,
  0xbe7a59b3bcf88eefU, 0xbe781060bd80353dU, 0xbd1debe53ddaf237U, 0xbe857dd2be64eb0fU,
  0x3df6056b3d93df20U, 0x3de929ce3d2d9645U, 0xbd9583143d9758f6U, 0xbd044f51be3c419aU,
  0xbda54ebebeadae78U, 0x3e789f033d92017cU, 0x3e1796f3beb678f8U, 0x3ec083d1be54dc36U,
  0x3d077d823c6bef53U, 0xbead05153e24f35dU, 0x3e83e45ebe148e7cU, 0x3e09f430bb951792U,
  0xbe8d9cec3e0131c5U, 0x3e06d8953ec30f2eU, 0xbc78cce43e3afeeaU, 0xbeba015e3e22582bU,
  0x3e5d69d5beb40992U, 0xbdbe89f2be5b8791U, 0x3d195f743d12372bU, 0x3e6d66ea3e3374deU,
  0x3e3519403e1e86a2U, 0xbd73ade23dd43ce8U, 0xbeb49aa63dae1ab9U, 0x3db31c44bcc5a1cdU,
  0xbe37fc3c3d11b141U, 0xbe53c75d3d9f6a6aU, 0x3dc18891bf106802U, 0x3e1f7e1abd993cf2U,
  0x3e2309803e7710f5U, 0x3d01a8833dc8d756U, 0xbda212d33d367f41U, 0x3d9c4ef4be40b595U,
  0xbea125b23d632d12U, 0xbe835de63e81b240U, 0x3b2ef228be77c38bU, 0xbc5fc4523e1f5985U,
  0x3da906833dcdae2eU, 0x3c543ba3be481101U, 0xbdeced5e3e4aa524U, 0x3d1e06773d1977deU,
  0xbe861861bd7b07a7U, 0xbc3a18e8bdd884e6U, 0xbd93e4823d916ac8U, 0xbdd56024be08e490U,
  0xbcb2cec7be3405d7U, 0xbe027664be51cf4fU, 0xbe37fd58be5df166U, 0x3d9d82afbe687325U,
  0x3dad8bbbbc06960eU, 0x3e28097ebe1c5b37U, 0x3cc02f89be28150fU, 0x3de79bb13e20fa54U,
  0x3e729174bcfc3022U, 0xbe4867e23e8e5c51U, 0x3e353bef3e35e126U, 0xbe4be53bbe32444bU,
  0xbec33a553e4da71aU, 0x3e0bfaaa3deeab90U, 0x3ce68de1bd24cd49U, 0x3da0b64cbe6076c4U,
  0x3d4b463fbde12f08U, 0xbd97d2f7bd86d1e6U, 0xbe57beddbcc02d10U, 0x3dade906bed83b3bU,
  0xbe6cef3b3e425658U, 0x3c23d50d3cf1c9f2U, 0xbdaab345be5730dfU, 0xbd464f46be13d9f1U,
  0x3e1c50063c6583e7U, 0xbc5735bebbd26975U, 0x3c9ce18e3dc8afd2U, 0x3e1bed9cbc11f56aU,
  0xbed172ea3d15fdedU, 0xbcc085cdbd19b12dU, 0xbd8cfa88be039185U, 0xbe444c2fbdc198fdU,
  0x3d81da88be182ed3U, 0x3e79a94dbe6f174eU, 0xbe9124e93dd9cf75U, 0x3e4a72c2beada55eU,
  0xbe2da94dbd1f4704U, 0x3e304dce3d370198U, 0xbdb2f979bebf447aU, 0xbc82bb7d3de035b1U,
  0x3e4dc0f8bdcd7f3bU, 0xbe8ff0753e48b797U, 0xbd1cf3173e1fea7fU, 0xbd98f6103b8d60beU,
  0xbe6010243e30b97fU, 0xbda1ad0ebe1576f0U, 0xbd930cfebe3151f6U, 0x3cfa77f7bd051f16U,
  0x3d306ceabe17d705U, 0xbeb7a1bfbeb23c42U, 0xbe84ced8be23d5caU, 0x3e2b116cbe8f2549U,
  0xbc6c564d3e4cc40eU, 0xbe6e91983e4d9c50U, 0xbe9cc7b3be364778U, 0xbe8b1b73be88d43fU,
  0x3d84a038bd42960eU, 0xbdb8fbb3bdf324daU, 0xbdf07d85bca969e0U, 0xbe13c77c3deaaeb1U,
  0xbe4ee5b4bc2d628cU, 0xbd82d9f1be80fbb1U, 0xbc0a3fbcbd51aa5dU, 0x3d27c66a3c5f3828U,
  0x3cc54bc23d8a54b5U, 0xbe3f5b0abe95eb06U, 0xbdba6e66bda6b34bU, 0x3e6e689abe397791U,
  0x3dbd36ce3dd4e006U, 0xbe58f5433e865b3eU, 0x3e30fd3f3d031b90U, 0xbc18375cbdfddbbdU,
  0xbef82d763e360360U, 0x3de9d393bf03418cU, 0xbe17c12cbda7434aU, 0xbe728d403e270ec3U,
  0xbdea67a0bf18d2a3U, 0xbd0ef4653da6937eU, 0xbe878743bc5f701dU, 0xbe50a43fbe39bb69U,
  0xbd1d091dbd9c8c95U, 0xbefadb5dbeb3ae48U, 0x3d65f306bbba11b8U, 0xbe3d90efbe9784f2U,
  0xbe9a321bbebaa21aU, 0xbe193e0ebd07ed42U, 0xb96f67c9be3e2e62U, 0xbea3fc83beeaa072U,
  0xbeb7a5753e0fec3dU, 0xbd4ca2bdbe1a825fU, 0xbebfebe8bea8fd39U, 0x3df488c53c159440U,
  0xbd8dfa07be5a4909U, 0x3da550ed3e6f6a89U, 0xbcedd304be990b72U, 0xbd50b4ddbe3bc820U,
  0x3c802e17be23c212U, 0xbe41319b3db4d852U, 0x3e0058223de68af2U, 0xbebf6d7b3ba4965eU,
  0xbd20ea62be907b3aU, 0xbe7b848cbe87ac82U, 0x3b8920e0bdb00d07U, 0xbdd8e175be6ca4b9U,
  0xbe9a9f6e3dee8b21U, 0x3d6fa35cbe24e526U, 0xbe32fb7ebddd69bcU, 0x3dda9c363d3b4255U,
  0x3def839ebe8c124dU, 0xbd09d4183e55d3a8U, 0x3e5c5fbfbe176823U, 0x3e1b249cbe068bd6U,
  0x3e02aeb03e626283U, 0x3d2d7a503e16fb3aU, 0x3e57d0993b312df7U, 0x3c645a723d6dee08U,
  0x3cd1c9ecbe7d888fU, 0xbcfddfc33dc45ab5U, 0x3e1999463d4b62f4U, 0x3c8b5dd43e611cd1U,
  0x3d2bbad73c1ac28aU, 0xbe525f3abd1cf07cU, 0xbe0f911c3c2f16d3U, 0xbd5756d93cc63980U,
  0xbd9d8efdbde57055U, 0x3e67ca9abe13cecfU, 0xbd2fb18ebdc24b37U, 0x3ddbd11abc1bbfb7U,
  0x3e4e3f9dbdb96345U, 0xbe910785be2dc284U, 0xbe44070dbd31ec27U, 0xbeae2ed7bde82314U,
  0x3d5fcd933d93a16cU, 0xbd258478bed147edU, 0xbee8252ebd023f44U, 0x3c8cf9a0be604098U,
  0xbe7317ca3d990da8U, 0x3d8ad4aabea8cc7bU, 0x3d3b184dbd6bdd9bU, 0xbe8b39713dc5e6fdU,
  0xbd4a094bbe49a51dU, 0x3dbb19793e1961b4U, 0xbdfd150d3e5daccdU, 0x3cb842d73e03dbbfU,
  0xbd91d4c5bd41585fU, 0xbeb6e6a5be71aac9U, 0xbdb56b33be529116U, 0xbe903e5eba382d51U,
  0xbde69beabe177994U, 0x3dc22754bee85b6bU, 0xbe265a5abde1657aU, 0xbd01278cbe95a126U,
  0xbd5e6c4b3e546d13U, 0x3dd3bcd8bdd5525eU, 0x3e868e323d5479c3U, 0xbec489243e60f5fbU,
  0x3d3a60b5bd5ea69aU, 0x3e26e3f63e9b3b96U, 0xbe11cfc23e26b320U, 0x3d22610f3e30da60U,
  0xbe0515223c838502U, 0xbe8fc1fcbe24a60eU, 0xbc2584ebbd865083U, 0xbe8b0d6cbda17c8cU,
  0xbddd87933d50e2faU, 0x3da99256be378f5fU, 0x3d7b8acf3d0db13eU, 0xbe773475bed8e4ccU,
  0x3e0922b43c8bd5b1U, 0xbd844c173caec630U, 0xbe1f89cebd9b165eU, 0x3e663317be18f756U,
  0xbd34be603e2c22c3U, 0x3e9693f8bb84b84aU, 0x3e546ef53e0baef3U, 0xbddfea243cc7e929U,
  0x3d362e54be86bdd1U, 0x3e37ae963df0ee85U, 0x3c8463a23d6af38fU, 0x3e6bc661bd9648e1U,
  0xbe6bb6463dff24b0U, 0xbd01ffd93d3db550U, 0xbeb5e394bc76edeeU, 0x3d83e8e43e34ca46U,
  0x3d763a873d8f9a80U, 0x3d595dd3be07bdeaU, 0xbd03020fbda6904cU, 0x3d3e51123e029ffbU,
  0x3e2dbeb1bda9ce75U, 0x3da7fe1bbbea5a91U, 0xbe064c7d3d755b0fU, 0xbd4c63f83df10390U,
  0xbcfc3416bd1f642dU, 0x3d96b07e3e417f8cU, 0x3e8c3d7bbe3c2a36U, 0x3df4ec753d9dbb25U,
  0x3cbd8fb53db259a8U, 0x3e38a0da3ce40ab3U, 0x38f232a33dd582faU, 0xbd1119d7bdf4d6c1U,
  0xbc36cb133d7786ceU, 0x3cb56dcdbe41975eU, 0x3d85ce1abe0d968dU, 0xbdbff3de3e81b04bU,
  0x3e35a168be16d148U, 0x3ccd2c5f3c8dfd1cU, 0xbdbf95f33e040c08U, 0x3da5b1183e366159U,
  0xbd8d18b23e7712faU, 0xbe25f2713de44479U, 0x3df9ee4bbe50d39bU, 0xbe704c493d7506b7U,
  0xbc7b9401bd4b0836U, 0xbe0f05993e25e129U, 0x3e23c9e93db08fa5U, 0xbe15be8fbe3f57d6U,
  0xbee458663d9d2683U, 0x3e5d75b3be84deb3U, 0x3db60258bdec5204U, 0x3c870ce4bdbd52ffU,
  0xbde8a499becb8661U, 0x3e0dede73e512879U, 0x3dad16603db880d8U, 0xbe5d7b6d3e2a31a1U,
  0x3e4f7da9be351e3bU, 0xbd5ac1e43d48854eU, 0x3dad56e63e8d7b03U, 0xbf0d815b3c9e6be1U,
  0xbd6ba4d9becb6b09U, 0xbe738abfbf18f74dU, 0xbcb39b273dd23be1U, 0xbdffbd56bd023141U,
  0x3de73fdfbd0d6076U, 0x3d864e203d924502U, 0x3d54f5b2bde6d702U, 0x3d3c93c7bd99910dU,
  0xbc93a8543cf6d4a4U, 0x3d816b9f3c379a4bU, 0xbd9dea573de038abU, 0xbc86a51f3dd84f00U,
  0x3dfeaf2c3d5dbd44U, 0x3dccc2283db12778U, 0xbd7b104c3d1a7c2bU, 0x3d6fe6a73cc3c5f2U,
  0x3ce455d03dda71f8U, 0x3d2760f1bd2eab7aU, 0xbe087a973d1383caU, 0x3d77b0443e81220aU,
  0x3d1dd8a13ca71d76U, 0x3cfe93a5bdb836d8U, 0xbd973954bdc26782U, 0x3dedfa603e09c1feU,
